{
  "version": "1.0",
  "truncation": null,
  "padding": null,
  "added_tokens": [
    {
      "id": 0,
      "content": "<unk>",
      "single_word": false,
      "lstrip": false,
      "rstrip": false,
      "normalized": false,
      "special": true
    },
    {
      "id": 1,
      "content": "<pad>",
      "single_word": false,
      "lstrip": false,
      "rstrip": false,
      "normalized": false,
      "special": true
    },
    {
      "id": 2,
      "content": "<|endofphrase|>",
      "single_word": false,
      "lstrip": false,
      "rstrip": false,
      "normalized": false,
      "special": true
    },
    {
      "id": 3,
      "content": "<|endoftext|>",
      "single_word": false,
      "lstrip": false,
      "rstrip": false,
      "normalized": false,
      "special": true
    }
  ],
  "normalizer": null,
  "pre_tokenizer": {
    "type": "ByteLevel",
    "add_prefix_space": true,
    "trim_offsets": true,
    "use_regex": true
  },
  "post_processor": {
    "type": "ByteLevel",
    "add_prefix_space": true,
    "trim_offsets": false,
    "use_regex": true
  },
  "decoder": null,
  "model": {
    "type": "BPE",
    "dropout": null,
    "unk_token": "<unk>",
    "continuing_subword_prefix": null,
    "end_of_word_suffix": null,
    "fuse_unk": false,
    "byte_fallback": false,
    "ignore_merges": false,
    "vocab": {
      "<unk>": 0,
      "<pad>": 1,
      "<|endofphrase|>": 2,
      "<|endoftext|>": 3,
      "!": 4,
      "\"": 5,
      "$": 6,
      "&": 7,
      "'": 8,
      "*": 9,
      ",": 10,
      "-": 11,
      ".": 12,
      "0": 13,
      "1": 14,
      "2": 15,
      "3": 16,
      "4": 17,
      "5": 18,
      "6": 19,
      "7": 20,
      "8": 21,
      "9": 22,
      ":": 23,
      ";": 24,
      "<": 25,
      ">": 26,
      "?": 27,
      "A": 28,
      "B": 29,
      "C": 30,
      "D": 31,
      "E": 32,
      "F": 33,
      "G": 34,
      "H": 35,
      "I": 36,
      "J": 37,
      "K": 38,
      "L": 39,
      "M": 40,
      "N": 41,
      "O": 42,
      "P": 43,
      "Q": 44,
      "R": 45,
      "S": 46,
      "T": 47,
      "U": 48,
      "V": 49,
      "W": 50,
      "X": 51,
      "Y": 52,
      "Z": 53,
      "a": 54,
      "b": 55,
      "c": 56,
      "d": 57,
      "e": 58,
      "f": 59,
      "g": 60,
      "h": 61,
      "i": 62,
      "j": 63,
      "k": 64,
      "l": 65,
      "m": 66,
      "n": 67,
      "o": 68,
      "p": 69,
      "q": 70,
      "r": 71,
      "s": 72,
      "t": 73,
      "u": 74,
      "v": 75,
      "w": 76,
      "x": 77,
      "y": 78,
      "z": 79,
      "|": 80,
      "¡": 81,
      "¦": 82,
      "©": 83,
      "«": 84,
      "±": 85,
      "³": 86,
      "»": 87,
      "Â": 88,
      "Ã": 89,
      "â": 90,
      "Ċ": 91,
      "č": 92,
      "Ġ": 93,
      "Ģ": 94,
      "ĵ": 95,
      "Ķ": 96,
      "ĺ": 97,
      "Ļ": 98,
      "ľ": 99,
      "Ŀ": 100,
      "he": 101,
      "Ġt": 102,
      "Ġa": 103,
      "Ġs": 104,
      "nd": 105,
      "Ġw": 106,
      "Ġthe": 107,
      "ed": 108,
      "Ġand": 109,
      "Ġto": 110,
      "in": 111,
      "Ġb": 112,
      "čĊ": 113,
      "Ġh": 114,
      "Ġwa": 115,
      "re": 116,
      "Ġf": 117,
      "ou": 118,
      "it": 119,
      "ĠT": 120,
      "Ġl": 121,
      "Ġc": 122,
      "Ġhe": 123,
      "Ġd": 124,
      "er": 125,
      "Ġwas": 126,
      "Ġm": 127,
      "Ġp": 128,
      "om": 129,
      "Ġo": 130,
      "ay": 131,
      "ing": 132,
      "ar": 133,
      "is": 134,
      "ĠThe": 135,
      "il": 136,
      "Ġg": 137,
      "id": 138,
      "ĠS": 139,
      "at": 140,
      "en": 141,
      "Ġsa": 142,
      "Ġn": 143,
      "Ġha": 144,
      "an": 145,
      "im": 146,
      "or": 147,
      "on": 148,
      "Ġit": 149,
      "Ġth": 150,
      "ll": 151,
      "ĠH": 152,
      "le": 153,
      "Ġ\"": 154,
      "et": 155,
      "Ġher": 156,
      "ir": 157,
      "ĠShe": 158,
      "ot": 159,
      "ĠHe": 160,
      "end": 161,
      "Ġin": 162,
      "ver": 163,
      "es": 164,
      "ow": 165,
      "ut": 166,
      "ck": 167,
      "ĠThey": 168,
      "Ġu": 169,
      "ld": 170,
      "Ġsaid": 171,
      "ĠL": 172,
      "Ġy": 173,
      "ex": 174,
      "oo": 175,
      "ig": 176,
      "Ġbe": 177,
      "am": 178,
      "Ġst": 179,
      "Ġr": 180,
      "ily": 181,
      "Ġshe": 182,
      "ce": 183,
      "ĠI": 184,
      "pp": 185,
      "ĠO": 186,
      "ĠčĊ": 187,
      "ith": 188,
      "ĠOn": 189,
      "ke": 190,
      "Ġwith": 191,
      "ve": 192,
      "ked": 193,
      "Ġof": 194,
      "Ġso": 195,
      "ri": 196,
      "Ġon": 197,
      "Ġhis": 198,
      "ft": 199,
      "ĠLily": 200,
      "Ġyou": 201,
      "Ġpl": 202,
      "Ġday": 203,
      "very": 204,
      "nt": 205,
      "ad": 206,
      "ĠB": 207,
      "Ġthat": 208,
      "Ġup": 209,
      "el": 210,
      "st": 211,
      "Ġhad": 212,
      "Ġplay": 213,
      "ext": 214,
      "Ġthey": 215,
      "Ġmom": 216,
      "Ġfor": 217,
      "Ġwe": 218,
      "my": 219,
      "Ġe": 220,
      "ould": 221,
      "'s": 222,
      "un": 223,
      "oft": 224,
      "<|": 225,
      "|>": 226,
      "Ġ<|": 227,
      "endoft": 228,
      "endoftext": 229,
      "ĠM": 230,
      "ent": 231,
      "itt": 232,
      "Ġli": 233,
      "Ġhapp": 234,
      "her": 235,
      "out": 236,
      "ch": 237,
      "Ġwant": 238,
      "Ġsh": 239,
      "ly": 240,
      "ound": 241,
      "ittle": 242,
      "all": 243,
      "ime": 244,
      "Ġdo": 245,
      "Ġlittle": 246,
      "Ġtime": 247,
      "Ġvery": 248,
      "Ġthere": 249,
      "ome": 250,
      "Ġwh": 251,
      "se": 252,
      "ht": 253,
      "Ġk": 254,
      "Ġsm": 255,
      "Ġre": 256,
      "al": 257,
      "ĠA": 258,
      "Ġnot": 259,
      "Ġbig": 260,
      "Ġhappy": 261,
      "ack": 262,
      "riend": 263,
      "Ġas": 264,
      "Ġfriend": 265,
      "Ġbut": 266,
      "Ġsaw": 267,
      "Ġan": 268,
      "ĠIt": 269,
      "Ġne": 270,
      "ra": 271,
      "ĠTim": 272,
      "ĠOne": 273,
      ".\"": 274,
      "ĠJ": 275,
      "ry": 276,
      "Ġis": 277,
      "ved": 278,
      "'t": 279,
      "ide": 280,
      "!\"": 281,
      "ĠOnce": 282,
      "Ġloo": 283,
      "ake": 284,
      "ug": 285,
      "Ġwere": 286,
      "ec": 287,
      "Ġlo": 288,
      "ore": 289,
      "Ġbo": 290,
      "irl": 291,
      "Ġupon": 292,
      "Ġhim": 293,
      "Ġtoo": 294,
      "Ġgirl": 295,
      "Ġse": 296,
      "Ġgo": 297,
      "Ġj": 298,
      "ard": 299,
      "Ġwanted": 300,
      "Ġout": 301,
      "ill": 302,
      "Ġsmil": 303,
      "fu": 304,
      "hen": 305,
      "way": 306,
      "Ġcould": 307,
      "Ġsp": 308,
      "ind": 309,
      "Ġat": 310,
      "ur": 311,
      "Ġthem": 312,
      "Ġex": 313,
      "ain": 314,
      "Ġare": 315,
      "Ġdid": 316,
      "round": 317,
      "Ġtheir": 318,
      "Ġwent": 319,
      "hed": 320,
      "art": 321,
      "ĠTom": 322,
      "ĠBen": 323,
      "ic": 324,
      "rom": 325,
      "Ġnam": 326,
      "lp": 327,
      "hing": 328,
      "Ġcan": 329,
      "Ġhave": 330,
      "Ġhelp": 331,
      "ful": 332,
      "?\"": 333,
      "ter": 334,
      "ĠW": 335,
      "Ġfriends": 336,
      "ight": 337,
      "Ġall": 338,
      "um": 339,
      "Ġkn": 340,
      "ood": 341,
      "one": 342,
      "Ġback": 343,
      "ark": 344,
      "ĠTimmy": 345,
      "ĠBut": 346,
      "Ġcl": 347,
      "Ġsmiled": 348,
      "Ġnamed": 349,
      "Ġca": 350,
      "Ġfun": 351,
      "oug": 352,
      "âĢ": 353,
      "Ġasked": 354,
      "Ġno": 355,
      "Ġloved": 356,
      "elt": 357,
      "Ġle": 358,
      "op": 359,
      "Ġsc": 360,
      "ick": 361,
      "Ġfelt": 362,
      "Ġaround": 363,
      "Ġlooked": 364,
      "side": 365,
      "Ġal": 366,
      "You": 367,
      "ame": 368,
      "get": 369,
      "omet": 370,
      "Ġfe": 371,
      "Ġboy": 372,
      "Ġman": 373,
      "Ġbir": 374,
      "Ġtoy": 375,
      "ure": 376,
      "Ġsee": 377,
      "Ġme": 378,
      "Ġlike": 379,
      "Ġro": 380,
      "Ġstart": 381,
      "Ġbr": 382,
      "Ġwould": 383,
      "Ġsome": 384,
      "dd": 385,
      "as": 386,
      "ice": 387,
      "Ġbird": 388,
      "Ġsay": 389,
      "ong": 390,
      "Ġsomet": 391,
      "gether": 392,
      "Ġwor": 393,
      "king": 394,
      "ree": 395,
      "Ġag": 396,
      "Ġwhat": 397,
      "ings": 398,
      "ie": 399,
      "own": 400,
      "ade": 401,
      "Ġstarted": 402,
      ",\"": 403,
      "Ġfa": 404,
      "Ġtogether": 405,
      "ag": 406,
      "ared": 407,
      "Ġaway": 408,
      "ited": 409,
      "Ġsomething": 410,
      "Ġmake": 411,
      "Ġran": 412,
      "oud": 413,
      "Ġexc": 414,
      "Ġpark": 415,
      "ĠF": 416,
      "Ġco": 417,
      "Ġmade": 418,
      "ble": 419,
      "Ġsad": 420,
      "Ġot": 421,
      "Ġcar": 422,
      "Ġfrom": 423,
      "Ġnew": 424,
      "Ġwhen": 425,
      "pped": 426,
      "ĠE": 427,
      "ell": 428,
      "hat": 429,
      "Ġla": 430,
      "Ġpr": 431,
      "Ġother": 432,
      "Ġthen": 433,
      "Ġhome": 434,
      "Ġmu": 435,
      "ĠMom": 436,
      "Ġput": 437,
      "Ġagain": 438,
      "pl": 439,
      "ĠYou": 440,
      "Ġfound": 441,
      "if": 442,
      "ĠSu": 443,
      "Ġwho": 444,
      "Ġfl": 445,
      "Ġwal": 446,
      "est": 447,
      "ought": 448,
      "ally": 449,
      "ep": 450,
      "ss": 451,
      "Ġdec": 452,
      "Ġhug": 453,
      "qu": 454,
      "ook": 455,
      "Ġplaying": 456,
      "Ġexcited": 457,
      "ried": 458,
      "Ġget": 459,
      "Ġgood": 460,
      "ĠD": 461,
      "Ġch": 462,
      "Ġsw": 463,
      "ach": 464,
      "ous": 465,
      "ro": 466,
      "Ġthings": 467,
      "Ġv": 468,
      "Ġsays": 469,
      "Ġgot": 470,
      "ny": 471,
      "uck": 472,
      "Ġcame": 473,
      "Ġdecid": 474,
      "Ġdog": 475,
      "Ġdecided": 476,
      "Ġevery": 477,
      "Ġbl": 478,
      "ust": 479,
      "Ġliked": 480,
      "Ġbec": 481,
      "Ġdown": 482,
      "Ġone": 483,
      "Ġscared": 484,
      "Ġcare": 485,
      "ouse": 486,
      "Ġthan": 487,
      "Ġfind": 488,
      "Ġfeel": 489,
      "ara": 490,
      "Ġtree": 491,
      "Ġab": 492,
      "Ġdad": 493,
      "Ġyour": 494,
      "Ġpo": 495,
      "ways": 496,
      "ĠSo": 497,
      "Ġta": 498,
      "ĠSam": 499,
      "ĠJo": 500,
      "ave": 501,
      "Ġbu": 502,
      "ĠMa": 503,
      "ist": 504,
      "Ġalways": 505,
      "bb": 506,
      "ant": 507,
      "Ġdidn": 508,
      "Ġabout": 509,
      "nder": 510,
      "our": 511,
      "ite": 512,
      "Ġke": 513,
      "Ġlot": 514,
      "Ġthought": 515,
      "Ġtook": 516,
      "Ġkne": 517,
      "ĠSara": 518,
      "Ġgra": 519,
      "Ġmy": 520,
      "ĠWhen": 521,
      "Ġlook": 522,
      "Ġold": 523,
      "Ġint": 524,
      "ned": 525,
      "ers": 526,
      "fe": 527,
      "are": 528,
      "na": 529,
      "ĠMax": 530,
      "ched": 531,
      "ise": 532,
      "Ġoutside": 533,
      "ess": 534,
      "dden": 535,
      "Ġlaug": 536,
      "eci": 537,
      "Ġho": 538,
      "Ġmommy": 539,
      "ened": 540,
      "ged": 541,
      "ĠAn": 542,
      "Ġball": 543,
      "Ġtoys": 544,
      "Ġtake": 545,
      "ĠHer": 546,
      "Ġknow": 547,
      "ddenly": 548,
      "Ġwill": 549,
      "Ġlear": 550,
      "Ġmore": 551,
      "Ġpu": 552,
      "ecial": 553,
      "Ġspecial": 554,
      "Ġknew": 555,
      "Ġpe": 556,
      "ret": 557,
      "ĠJack": 558,
      "reat": 559,
      "Ġany": 560,
      "fter": 561,
      "Ġsun": 562,
      "ma": 563,
      "Ġtr": 564,
      "Ġcat": 565,
      "ive": 566,
      "ap": 567,
      "Ġhow": 568,
      "ia": 569,
      "Ġtw": 570,
      "ge": 571,
      "ĠAnna": 572,
      "ven": 573,
      "Ġshow": 574,
      "ob": 575,
      "Ġmo": 576,
      "Ġsk": 577,
      "Ġmuch": 578,
      "ish": 579,
      "Ġinto": 580,
      "Ġen": 581,
      "au": 582,
      "ĠEvery": 583,
      "Ġcouldn": 584,
      "ĠSuddenly": 585,
      "Ġtold": 586,
      "Ġqu": 587,
      "Ġexpl": 588,
      "Ġclo": 589,
      "Ġif": 590,
      "Ġhand": 591,
      "Ġsl": 592,
      "Ġsor": 593,
      "Ġop": 594,
      "ank": 595,
      "Ġhouse": 596,
      "Ġnever": 597,
      "Ġproud": 598,
      "Ġinside": 599,
      "other": 600,
      "Ġheard": 601,
      "Ġgave": 602,
      "Ġover": 603,
      "ĠâĢ": 604,
      "Ġthis": 605,
      "Ġor": 606,
      "Ġrun": 607,
      "Ġstr": 608,
      "ty": 609,
      "Ġpick": 610,
      "Ġroom": 611,
      "Ġtried": 612,
      "ĠFrom": 613,
      "dy": 614,
      "ĠHis": 615,
      "ink": 616,
      "Ġwater": 617,
      "uc": 618,
      "here": 619,
      "Ġplayed": 620,
      "ion": 621,
      "Ġfo": 622,
      "ause": 623,
      "Ġsmall": 624,
      "ĠâĢľ": 625,
      "ate": 626,
      "âĢĿ": 627,
      "Ġsorry": 628,
      "ace": 629,
      "Ġjust": 630,
      "etter": 631,
      "Ġwat": 632,
      "ump": 633,
      "Ġeat": 634,
      "sed": 635,
      "ough": 636,
      "Ġhugged": 637,
      "oth": 638,
      "Ġneed": 639,
      "ile": 640,
      "Ġcom": 641,
      "Ġbecause": 642,
      "'m": 643,
      "ĠThen": 644,
      "iz": 645,
      "Ġcall": 646,
      "Ġlong": 647,
      "ving": 648,
      "by": 649,
      "Ġbox": 650,
      "Ġtry": 651,
      "ĠMia": 652,
      "ild": 653,
      "sel": 654,
      "ort": 655,
      "Ġpret": 656,
      "lly": 657,
      "Ġmany": 658,
      "Ġnice": 659,
      "ue": 660,
      "Ġoff": 661,
      "Ġeach": 662,
      "ĠAnd": 663,
      "Ġbear": 664,
      "ĠC": 665,
      "hn": 666,
      "Ġbea": 667,
      "ine": 668,
      "imal": 669,
      "Ġunt": 670,
      "Ġanimal": 671,
      "Yes": 672,
      "ning": 673,
      "ear": 674,
      "ĠJohn": 675,
      "Ġad": 676,
      "Ġflow": 677,
      "Ġuntil": 678,
      "Ġthanked": 679,
      "Ġbetter": 680,
      "Ġlaughed": 681,
      "ĠWe": 682,
      "pt": 683,
      "em": 684,
      "Ġdon": 685,
      "ady": 686,
      "vent": 687,
      "gry": 688,
      "Ġbest": 689,
      "urt": 690,
      "Ġlearned": 691,
      "Ġend": 692,
      "ak": 693,
      "oy": 694,
      "Ġeven": 695,
      "Ġbeaut": 696,
      "Ġim": 697,
      "Ġkind": 698,
      "ber": 699,
      "Ġby": 700,
      "Ġgr": 701,
      "Ġgard": 702,
      "Ġgarden": 703,
      "Ġdre": 704,
      "Ġsky": 705,
      "self": 706,
      "Ġfi": 707,
      "Ġcu": 708,
      "lew": 709,
      "urp": 710,
      "sh": 711,
      "Ġbra": 712,
      "iny": 713,
      "Th": 714,
      "Ġra": 715,
      "Ġcareful": 716,
      "ĠAs": 717,
      "Ġcle": 718,
      "Ġway": 719,
      "Ġfast": 720,
      "Ġlots": 721,
      "Ġlived": 722,
      "Ġlove": 723,
      "Ġbeauti": 724,
      "and": 725,
      "Ġbeautiful": 726,
      "Ġsn": 727,
      "ucy": 728,
      "ĠLucy": 729,
      "Ġgl": 730,
      "ct": 731,
      "Ġche": 732,
      "ĠP": 733,
      "Ġcalled": 734,
      "Ġstill": 735,
      "ves": 736,
      "Ġtwo": 737,
      "Ġjump": 738,
      "Ġcome": 739,
      "ane": 740,
      "Ġwo": 741,
      "ase": 742,
      "ĠBob": 743,
      "Ġhard": 744,
      "Ġboth": 745,
      "ect": 746,
      "igh": 747,
      "Ġfam": 748,
      "Ġloud": 749,
      "Ġar": 750,
      "Ġstay": 751,
      "It": 752,
      "Ġrem": 753,
      "eet": 754,
      "hes": 755,
      "Ġlet": 756,
      "Ġlist": 757,
      "âĢĻ": 758,
      "Ġcol": 759,
      "Let": 760,
      "Ġits": 761,
      "Ġow": 762,
      "Ġunder": 763,
      "Ġbrave": 764,
      "ĠAfter": 765,
      "Ġflew": 766,
      "Ġanimals": 767,
      "Ġdan": 768,
      "Ġhurt": 769,
      "Ġsafe": 770,
      "ool": 771,
      "Ġfly": 772,
      "ople": 773,
      "ied": 774,
      "Ġtow": 775,
      "Ġwalked": 776,
      "ies": 777,
      "Ġfin": 778,
      "urpr": 779,
      "Ġsu": 780,
      "ĠG": 781,
      "Ġimp": 782,
      "Ġsurpr": 783,
      "Ġsoon": 784,
      "Ġbad": 785,
      "Ġexplore": 786,
      "What": 787,
      "Ġgoing": 788,
      "kay": 789,
      "Ġred": 790,
      "Ġdoll": 791,
      "Ġstor": 792,
      "Ġpeople": 793,
      "fore": 794,
      "dded": 795,
      "ock": 796,
      "ished": 797,
      "Ġsto": 798,
      "Ġfamily": 799,
      "ummy": 800,
      "Ġkept": 801,
      "led": 802,
      "ised": 803,
      "Ġcon": 804,
      "Ġbook": 805,
      "Ġpic": 806,
      "ip": 807,
      "Ġshould": 808,
      "Ġground": 809,
      "Ġfore": 810,
      "No": 811,
      "Ġcry": 812,
      "be": 813,
      "Ġdra": 814,
      "ary": 815,
      "Ġnow": 816,
      "illy": 817,
      "iced": 818,
      "Ġangry": 819,
      "Ġshiny": 820,
      "Ġadvent": 821,
      "Ġdoor": 822,
      "Ġbefore": 823,
      "ĠR": 824,
      "Ġey": 825,
      "Ġopened": 826,
      "Ġwind": 827,
      "ĠMommy": 828,
      "Ġshare": 829,
      "Ġkeep": 830,
      "Ġfeeling": 831,
      "Ġwhile": 832,
      "Ġrepl": 833,
      "Ġwalking": 834,
      "Ġtur": 835,
      "Ġfar": 836,
      "Ġnodded": 837,
      "Ġwar": 838,
      "thing": 839,
      "Ġpretty": 840,
      "That": 841,
      "ff": 842,
      "Ġfr": 843,
      "Ġrock": 844,
      "Ġide": 845,
      "Ġpicked": 846,
      "Ġclean": 847,
      "ger": 848,
      "Ġnoise": 849,
      "ĠDad": 850,
      "th": 851,
      "Ġstopped": 852,
      "Ġnoticed": 853,
      "Ġwr": 854,
      "Ġclos": 855,
      "ture": 856,
      "Ġthr": 857,
      "ner": 858,
      "Ġreal": 859,
      "ting": 860,
      "Ġreplied": 861,
      "joy": 862,
      "Ġvo": 863,
      "imb": 864,
      "Ġtre": 865,
      "Ġun": 866,
      "Ġidea": 867,
      "Ġbed": 868,
      "Ġclimb": 869,
      "Ġnext": 870,
      "age": 871,
      "Ġlooking": 872,
      "Ġjo": 873,
      "ious": 874,
      "Ġadventure": 875,
      "Ġcolor": 876,
      "ĠN": 877,
      "Thank": 878,
      "Ġtruck": 879,
      "bbit": 880,
      "Ġdis": 881,
      "Ġgreat": 882,
      "ember": 883,
      "Ġquick": 884,
      "Ġeyes": 885,
      "les": 886,
      "ĠSue": 887,
      "Ġwait": 888,
      "Ġdel": 889,
      "Ġma": 890,
      "maz": 891,
      "Ġamaz": 892,
      "Ġsmile": 893,
      "Ġenjoy": 894,
      "gan": 895,
      "ĠJane": 896,
      "Ġpicture": 897,
      "Ġte": 898,
      "oon": 899,
      "ted": 900,
      "Ġwalk": 901,
      "Ġrabbit": 902,
      "Ġwonder": 903,
      "Ġremember": 904,
      "Ġapp": 905,
      "ught": 906,
      "Ġfish": 907,
      "Ġever": 908,
      "Ġhands": 909,
      "Ġyear": 910,
      "Ġafter": 911,
      "Ġmor": 912,
      "Ġbeing": 913,
      "Ġdif": 914,
      "Ġpain": 915,
      "irst": 916,
      "Ġright": 917,
      "ange": 918,
      "Ġgive": 919,
      "Ġfood": 920,
      "Ġwatch": 921,
      "Ġvoice": 922,
      "ĠSp": 923,
      "so": 924,
      "Ġquickly": 925,
      "Ġblue": 926,
      "ac": 927,
      "Ġwork": 928,
      "Ġforest": 929,
      "able": 930,
      "Ġshout": 931,
      "Ġalso": 932,
      "Ġstrong": 933,
      "Ġcloser": 934,
      "kes": 935,
      "Ġac": 936,
      "Ġgre": 937,
      "Ġyell": 938,
      "Ġbeen": 939,
      "llow": 940,
      "Ġnear": 941,
      "Ġrain": 942,
      "aybe": 943,
      "isy": 944,
      "Ġlisten": 945,
      "Ġflowers": 946,
      "Ġimport": 947,
      "ized": 948,
      "Ġthink": 949,
      "Ġcuri": 950,
      "Ġtra": 951,
      "Ġbro": 952,
      "Ġshowed": 953,
      "Ġthree": 954,
      "Ġde": 955,
      "Ġhas": 956,
      "Ġbecame": 957,
      "bbed": 958,
      "Ġwatched": 959,
      "Ġhigh": 960,
      "ream": 961,
      "Ġuse": 962,
      "Ġru": 963,
      "bye": 964,
      "Ġus": 965,
      "ng": 966,
      "Ġeveryone": 967,
      "Ġtal": 968,
      "Ġokay": 969,
      "Ġgi": 970,
      "Ġimportant": 971,
      "day": 972,
      "Ġsound": 973,
      "Ġhead": 974,
      "Ġtou": 975,
      "Ġcurious": 976,
      "ered": 977,
      "Ġbright": 978,
      "Ġstick": 979,
      "Ġplace": 980,
      "Ġsure": 981,
      "ĠJoe": 982,
      "Ġface": 983,
      "Ġcr": 984,
      "Ġfollow": 985,
      "Ġsqu": 986,
      "Ġslide": 987,
      "fere": 988,
      "Ġwhere": 989,
      "lease": 990,
      "olly": 991,
      "Ġmag": 992,
      "Ġmum": 993,
      "Ġdiffere": 994,
      "Ġbel": 995,
      "ired": 996,
      "Look": 997,
      "ila": 998,
      "Ġask": 999,
      "ĠSpot": 1000,
      "Ġchild": 1001,
      "Ġmean": 1002,
      "Ġcont": 1003,
      "Ġgoodbye": 1004,
      "We": 1005,
      "ĠSarah": 1006,
      "Can": 1007,
      "Ġhere": 1008,
      "Ġfirst": 1009,
      "leep": 1010,
      "Ġboat": 1011,
      "Ġam": 1012,
      "Ġper": 1013,
      "Ġbit": 1014,
      "ĠTh": 1015,
      "Ġwarm": 1016,
      "ull": 1017,
      "Ġdress": 1018,
      "Ġstore": 1019,
      "Ġnight": 1020,
      "Ġdifferent": 1021,
      "ached": 1022,
      "itc": 1023,
      "ĠLila": 1024,
      "more": 1025,
      "Ġanymore": 1026,
      "Ġopen": 1027,
      "aisy": 1028,
      "Ġgame": 1029,
      "Ġstory": 1030,
      "Ġhop": 1031,
      "Ġforg": 1032,
      "Ġworld": 1033,
      "Ġsweet": 1034,
      "ĠIn": 1035,
      "Ġbeh": 1036,
      "Ġjumped": 1037,
      "co": 1038,
      "ount": 1039,
      "Ġblock": 1040,
      "Ġfire": 1041,
      "ndma": 1042,
      "Ġbutter": 1043,
      "Ġz": 1044,
      "imes": 1045,
      "Ġrest": 1046,
      "Ġbegan": 1047,
      "Ġreally": 1048,
      "Ġhelped": 1049,
      "Ġpat": 1050,
      "Ġthrough": 1051,
      "Mom": 1052,
      "zy": 1053,
      "Ġtell": 1054,
      "ster": 1055,
      "Ġfav": 1056,
      "Ġdraw": 1057,
      "Ġhappened": 1058,
      "Ġfell": 1059,
      "Ġgrabbed": 1060,
      "Ġlea": 1061,
      "Ġour": 1062,
      "Ġmon": 1063,
      "arent": 1064,
      "ey": 1065,
      "ppy": 1066,
      "Ġbrother": 1067,
      "Ġcook": 1068,
      "Ġonly": 1069,
      "Ġpull": 1070,
      "Ġglad": 1071,
      "ĠSally": 1072,
      "Ġsand": 1073,
      "unny": 1074,
      "ĠDaisy": 1075,
      "ĠEveryone": 1076,
      "Ġflower": 1077,
      "Ġlady": 1078,
      "Ġflo": 1079,
      "Ġthing": 1080,
      "Ġseen": 1081,
      "'re": 1082,
      "ul": 1083,
      "Ġparent": 1084,
      "Ġcake": 1085,
      "Ġshouted": 1086,
      "us": 1087,
      "Ġmagic": 1088,
      "Ġgrass": 1089,
      "Ġbirds": 1090,
      "Ġname": 1091,
      "Ġkitc": 1092,
      "Ġkitchen": 1093,
      "ast": 1094,
      "uff": 1095,
      "Ġtired": 1096,
      "Ġhopped": 1097,
      "ĠLet": 1098,
      "Ġready": 1099,
      "Ġreached": 1100,
      "Ġsoft": 1101,
      "ient": 1102,
      "ĠThat": 1103,
      "Ġkid": 1104,
      "Ġhaving": 1105,
      "ass": 1106,
      "ater": 1107,
      "Ġtast": 1108,
      "ĠMolly": 1109,
      "Ġpond": 1110,
      "Ġfill": 1111,
      "Ġdone": 1112,
      "Ġfro": 1113,
      "Ġdin": 1114,
      "Ġdoes": 1115,
      "Ġyears": 1116,
      "Ġworry": 1117,
      "Ġmouse": 1118,
      "ars": 1119,
      "iss": 1120,
      "ather": 1121,
      "ins": 1122,
      "fully": 1123,
      "hy": 1124,
      "Ġstop": 1125,
      "ĠEm": 1126,
      "ued": 1127,
      "where": 1128,
      "Ġwaved": 1129,
      "Ġwhy": 1130,
      "Ġsees": 1131,
      "Ġrealized": 1132,
      "!âĢĿ": 1133,
      "Ġdr": 1134,
      "Ġcoming": 1135,
      "air": 1136,
      "Ġsing": 1137,
      "Ġhimself": 1138,
      "Ġyummy": 1139,
      "Ġless": 1140,
      "ĠFin": 1141,
      "mer": 1142,
      "ely": 1143,
      "Ġate": 1144,
      "Don": 1145,
      "Wow": 1146,
      "Ġwood": 1147,
      "Ġparents": 1148,
      "Ġbehind": 1149,
      "Ġcut": 1150,
      "\".": 1151,
      "ken": 1152,
      "Ġbre": 1153,
      "Ġsurprise": 1154,
      "Ġprin": 1155,
      "ards": 1156,
      "Ġswim": 1157,
      "Ġste": 1158,
      "Ġfunny": 1159,
      "Ġrunning": 1160,
      "ĠK": 1161,
      "Ġbutterf": 1162,
      "Ġcreat": 1163,
      "Ġyellow": 1164,
      "Ġworked": 1165,
      "Ġ-": 1166,
      "Ġsmell": 1167,
      "Ġfavor": 1168,
      "Ġdark": 1169,
      "ĠTommy": 1170,
      "Ġunderst": 1171,
      "Ġbag": 1172,
      "Ġfix": 1173,
      "Ġset": 1174,
      "eddy": 1175,
      "Ġgreen": 1176,
      "Ġbunny": 1177,
      "Ġfavorite": 1178,
      "Ġlight": 1179,
      "Ġlooks": 1180,
      "Ġhappily": 1181,
      "Ġba": 1182,
      "ĠCan": 1183,
      "Ġdelic": 1184,
      "Ġmaking": 1185,
      "Ġused": 1186,
      "Ġperf": 1187,
      "ĠJim": 1188,
      "Ġdro": 1189,
      "oney": 1190,
      "Ġmess": 1191,
      "Ġpap": 1192,
      "Ġcold": 1193,
      "ĠDo": 1194,
      "Ġcatch": 1195,
      "Ġtrees": 1196,
      "Ġfrog": 1197,
      "Ġpart": 1198,
      "ĠAt": 1199,
      "Ġmove": 1200,
      "Ġanother": 1201,
      "Ġpre": 1202,
      "Ġblocks": 1203,
      "Ġremembered": 1204,
      "Ġtouch": 1205,
      "Ġlearn": 1206,
      "Ġkids": 1207,
      "Ġtri": 1208,
      ".âĢĿ": 1209,
      "Ġlion": 1210,
      "Ġslow": 1211,
      "Ġduck": 1212,
      "ation": 1213,
      "ign": 1214,
      "Ġenjoyed": 1215,
      "Ġcontin": 1216,
      "Ġcried": 1217,
      "Ġprom": 1218,
      "Ġbuy": 1219,
      "Ġdri": 1220,
      "ĠBenny": 1221,
      "Ġfull": 1222,
      "Ġarri": 1223,
      "Ġtop": 1224,
      "Ġbug": 1225,
      "Ġhat": 1226,
      "Ġcarefully": 1227,
      "Ġbuild": 1228,
      "Ġhole": 1229,
      "Ġbat": 1230,
      "Ġspot": 1231,
      "Ġdoing": 1232,
      "Ġsleep": 1233,
      "reed": 1234,
      "Ġherself": 1235,
      "Ġswing": 1236,
      "Ġtall": 1237,
      "rel": 1238,
      "Ġwrong": 1239,
      "Ġanything": 1240,
      "Ġpretend": 1241,
      "ĠGra": 1242,
      "ĠThere": 1243,
      "ren": 1244,
      "aring": 1245,
      "bo": 1246,
      "Ġhid": 1247,
      "Ġdream": 1248,
      "Ġcool": 1249,
      "ĠJill": 1250,
      "akes": 1251,
      "Ġsat": 1252,
      "Ġhair": 1253,
      "Ġlost": 1254,
      "Hell": 1255,
      "ike": 1256,
      "Ġread": 1257,
      "Hello": 1258,
      "Ġleft": 1259,
      "Ġbus": 1260,
      "iver": 1261,
      "Ġneeded": 1262,
      "'ll": 1263,
      "Ġsurprised": 1264,
      "Ġwonderful": 1265,
      "Ġfriendly": 1266,
      "Ġcontinued": 1267,
      "Ġbow": 1268,
      "ĠNow": 1269,
      "Ġarrived": 1270,
      "Ġwished": 1271,
      "Ġsho": 1272,
      "Ġbutterfly": 1273,
      "Ġcars": 1274,
      "Ġfinished": 1275,
      "Ġlesson": 1276,
      "ield": 1277,
      "ĠFinally": 1278,
      "Ġhill": 1279,
      "uffy": 1280,
      "Ġcra": 1281,
      "Ġrel": 1282,
      "Ġheld": 1283,
      "Ġair": 1284,
      "ĠBilly": 1285,
      "Ġhold": 1286,
      "Ġfloor": 1287,
      "Ġlaugh": 1288,
      "room": 1289,
      "ĠJen": 1290,
      "Ġfilled": 1291,
      "ens": 1292,
      "Ġfair": 1293,
      "Ġthank": 1294,
      "Ġfox": 1295,
      "Ġmother": 1296,
      "Ġwindow": 1297,
      "Ġchildren": 1298,
      "aught": 1299,
      "Ġcast": 1300,
      "ined": 1301,
      "asure": 1302,
      "Ġfollowed": 1303,
      "Ġpaper": 1304,
      "Ġtable": 1305,
      "Ġballoon": 1306,
      "Ġmat": 1307,
      "av": 1308,
      "ĠAmy": 1309,
      "Ġenough": 1310,
      "Ġturn": 1311,
      "Ġmoment": 1312,
      "ash": 1313,
      "Ġsnow": 1314,
      "Ġtight": 1315,
      "Ġhun": 1316,
      "ross": 1317,
      "Ġable": 1318,
      "Ġagreed": 1319,
      "Ġpoin": 1320,
      "Ġown": 1321,
      "Ġgent": 1322,
      "Ġmorning": 1323,
      "ĠThis": 1324,
      "Ġplease": 1325,
      "Ġsomeone": 1326,
      "Ġdelicious": 1327,
      "ĠTo": 1328,
      "cess": 1329,
      "Ġice": 1330,
      "Ġyes": 1331,
      "Ġgetting": 1332,
      "Ġtrying": 1333,
      "Ġforgot": 1334,
      "Ġmar": 1335,
      "ĠFl": 1336,
      "Ġamazing": 1337,
      "ds": 1338,
      "Ġtail": 1339,
      "ama": 1340,
      "Ġclose": 1341,
      "Ġgone": 1342,
      "Ġdinner": 1343,
      "sp": 1344,
      "Ġhear": 1345,
      "Ġmight": 1346,
      "ich": 1347,
      "Ġdir": 1348,
      "Ġscary": 1349,
      "Ġbrought": 1350,
      "gon": 1351,
      "Ġvis": 1352,
      "Ġdanc": 1353,
      "Ġbooks": 1354,
      "Ġcand": 1355,
      "ask": 1356,
      "Ġstrange": 1357,
      "ee": 1358,
      "Ġel": 1359,
      "app": 1360,
      "Ġfew": 1361,
      "Ġwoods": 1362,
      "Ġunderstand": 1363,
      "Ġarm": 1364,
      "Ġpaint": 1365,
      "orn": 1366,
      "Ġbroken": 1367,
      "Ġperfect": 1368,
      "Ġwhite": 1369,
      "ĠWhat": 1370,
      "Ġcolors": 1371,
      "Ġsong": 1372,
      "Ġwall": 1373,
      "Ġhot": 1374,
      "Ġcount": 1375,
      "oring": 1376,
      "icy": 1377,
      "Ġothers": 1378,
      "Ġbeach": 1379,
      "Ġlikes": 1380,
      "Ġfinally": 1381,
      "Ġpet": 1382,
      "eter": 1383,
      "irrel": 1384,
      "ower": 1385,
      "Ġcastle": 1386,
      "shed": 1387,
      "ance": 1388,
      "Ġsec": 1389,
      "Ġclot": 1390,
      "Ġdeep": 1391,
      "Ġelse": 1392,
      "Ġmet": 1393,
      "Ġsquirrel": 1394,
      "Ġleaves": 1395,
      "amp": 1396,
      "Ġclothes": 1397,
      "ph": 1398,
      "oup": 1399,
      "Ġturned": 1400,
      "Ġmus": 1401,
      "Ġstayed": 1402,
      "ons": 1403,
      "Ġcloud": 1404,
      "ctor": 1405,
      "os": 1406,
      "Ġroll": 1407,
      "der": 1408,
      "Ġfur": 1409,
      "Ġsail": 1410,
      "Ġjoy": 1411,
      "Ġpictures": 1412,
      "Ġwasn": 1413,
      "Ġsear": 1414,
      "Ġspark": 1415,
      "Ġeverything": 1416,
      "Ġamazed": 1417,
      "Ġgu": 1418,
      "Ġspl": 1419,
      "Ġsometimes": 1420,
      "Ġgrandma": 1421,
      "This": 1422,
      "ling": 1423,
      "Ġpink": 1424,
      "Ġmoral": 1425,
      "key": 1426,
      "Ġalone": 1427,
      "Ġflying": 1428,
      "Ġtalk": 1429,
      "Ġdaddy": 1430,
      "ated": 1431,
      "cket": 1432,
      "Ġride": 1433,
      "Ġpuppy": 1434,
      "Ġwet": 1435,
      "Ġgrow": 1436,
      "Ġclimbed": 1437,
      "Ġfight": 1438,
      "Ġcomp": 1439,
      "Oh": 1440,
      "red": 1441,
      "Ġpen": 1442,
      "Ġseem": 1443,
      "Ġhungry": 1444,
      "Ġwaited": 1445,
      "ries": 1446,
      "Ġbreak": 1447,
      "ix": 1448,
      "Ġbaby": 1449,
      "ĠAll": 1450,
      "Ġhide": 1451,
      "ever": 1452,
      "Ġjob": 1453,
      "ere": 1454,
      "Ġlistened": 1455,
      "Ġvisit": 1456,
      "anc": 1457,
      "Ġwants": 1458,
      "Ġdanger": 1459,
      "Ġtowards": 1460,
      "gg": 1461,
      "Ġfall": 1462,
      "elc": 1463,
      "ĠSoon": 1464,
      "ze": 1465,
      "ucky": 1466,
      "apped": 1467,
      "oom": 1468,
      "Ġmakes": 1469,
      "Ġwon": 1470,
      "Ġpi": 1471,
      "Ġsilly": 1472,
      "Ġfield": 1473,
      "igg": 1474,
      "leph": 1475,
      "ott": 1476,
      "ĠMama": 1477,
      "Ġcookies": 1478,
      "lf": 1479,
      "Ġside": 1480,
      "man": 1481,
      "rew": 1482,
      "Ġslowly": 1483,
      "Ġpromised": 1484,
      "Ġmusic": 1485,
      "Ġliving": 1486,
      "Ġshared": 1487,
      "avy": 1488,
      "Ġlake": 1489,
      "Ġbigger": 1490,
      "Ġbelie": 1491,
      "row": 1492,
      "ually": 1493,
      "Ġpol": 1494,
      "orm": 1495,
      "sw": 1496,
      "ence": 1497,
      "Ġmost": 1498,
      "Maybe": 1499,
      "ire": 1500,
      "Ġansw": 1501,
      "Ġfaster": 1502,
      "ĠJimmy": 1503,
      "ĠJust": 1504,
      "?âĢĿ": 1505,
      "Ġju": 1506,
      "thy": 1507,
      "Ġpulled": 1508,
      "Ġstepped": 1509,
      "Ġsmiles": 1510,
      "me": 1511,
      "ope": 1512,
      "ssed": 1513,
      "Ġmagical": 1514,
      "ĠTw": 1515,
      "Ġneigh": 1516,
      "Ġjoin": 1517,
      "Ġdisapp": 1518,
      "Ġneighb": 1519,
      "Hi": 1520,
      "ang": 1521,
      "Ġem": 1522,
      "Ġparty": 1523,
      "ĠFluffy": 1524,
      "ained": 1525,
      "Ġfarmer": 1526,
      "ames": 1527,
      "ugg": 1528,
      "Ġmust": 1529,
      "ister": 1530,
      "Ġtrain": 1531,
      "Ġbar": 1532,
      "ol": 1533,
      "Ġteddy": 1534,
      "Ġsit": 1535,
      "But": 1536,
      "Ġplan": 1537,
      "Ġmix": 1538,
      "Ġcrying": 1539,
      "Why": 1540,
      "Ġleave": 1541,
      "eared": 1542,
      "fort": 1543,
      "ipped": 1544,
      "ming": 1545,
      "Ġbott": 1546,
      "Ġdance": 1547,
      "Ġworried": 1548,
      "ateful": 1549,
      "Ġdragon": 1550,
      "Ġtreasure": 1551,
      "set": 1552,
      "Ġhelping": 1553,
      "aw": 1554,
      "Ġblack": 1555,
      "Mommy": 1556,
      "ipp": 1557,
      "Ġmoney": 1558,
      "Ġgrateful": 1559,
      "Ġcup": 1560,
      "bble": 1561,
      "rot": 1562,
      "Ġbee": 1563,
      "Ġdolls": 1564,
      "zz": 1565,
      "ĠMary": 1566,
      "Ġbike": 1567,
      "Ġwear": 1568,
      "ĠDaddy": 1569,
      "Ġacross": 1570,
      "The": 1571,
      "Ġatt": 1572,
      "Ġowl": 1573,
      "Ġsecret": 1574,
      "ĠTweet": 1575,
      "Okay": 1576,
      "Ġwelc": 1577,
      "Ġheavy": 1578,
      "ises": 1579,
      "Ġplant": 1580,
      "ĠMr": 1581,
      "Ġblank": 1582,
      "Ġmonster": 1583,
      "Ġve": 1584,
      "Ġcream": 1585,
      "bby": 1586,
      "Ġdangerous": 1587,
      "eces": 1588,
      "Ġasks": 1589,
      "Ġpro": 1590,
      "Ġpieces": 1591,
      "ĠMaybe": 1592,
      "ĠEmma": 1593,
      "Ġblanket": 1594,
      "less": 1595,
      "unch": 1596,
      "Ġreach": 1597,
      "Ġpot": 1598,
      "outh": 1599,
      "Ġland": 1600,
      "Ġgift": 1601,
      "Ġstuck": 1602,
      "Ġje": 1603,
      "Ġcandy": 1604,
      "ased": 1605,
      "ment": 1606,
      "Ġmouth": 1607,
      "Ġshap": 1608,
      "umb": 1609,
      "Ġacc": 1610,
      "Ġtreat": 1611,
      "Ġsister": 1612,
      "lephant": 1613,
      "Ġbelieve": 1614,
      "Ġhig": 1615,
      "Ġlon": 1616,
      "ĠMum": 1617,
      "Ġeverywhere": 1618,
      "Ġcolorful": 1619,
      "Ġdoctor": 1620,
      "iet": 1621,
      "Ġelephant": 1622,
      "ĠAl": 1623,
      "iting": 1624,
      "Ġstu": 1625,
      "ventually": 1626,
      "Ġsuch": 1627,
      "ident": 1628,
      "Ġbath": 1629,
      "Ġpocket": 1630,
      "Ġclosed": 1631,
      "Ġlonely": 1632,
      "Ġwithout": 1633,
      "Sure": 1634,
      "Ġsnack": 1635,
      "Ġtown": 1636,
      "Ġwords": 1637,
      "de": 1638,
      "Ġrace": 1639,
      "Ġeating": 1640,
      "ored": 1641,
      "Ġbroke": 1642,
      "br": 1643,
      "Ġheart": 1644,
      "Ġriver": 1645,
      "chool": 1646,
      "Ġkite": 1647,
      "Ġlonger": 1648,
      "Ġcour": 1649,
      "althy": 1650,
      "ract": 1651,
      "Ġclapped": 1652,
      "Ġcray": 1653,
      "Ġgentle": 1654,
      "Ġstand": 1655,
      "Ġyoung": 1656,
      "Ġexploring": 1657,
      "Ġowner": 1658,
      "Ġquiet": 1659,
      "Ġmonkey": 1660,
      "Ġhigher": 1661,
      "ose": 1662,
      "Ġph": 1663,
      "Ġnap": 1664,
      "Ġthinks": 1665,
      "Ġsuddenly": 1666,
      "Ġapple": 1667,
      "ĠInside": 1668,
      "Ġdirty": 1669,
      "Ġbite": 1670,
      "Ġsame": 1671,
      "Ġorange": 1672,
      "Ġbowl": 1673,
      "ek": 1674,
      "Ġsign": 1675,
      "Ġbuck": 1676,
      "Ġpers": 1677,
      "Ġschool": 1678,
      "Ġtwins": 1679,
      "uit": 1680,
      "Ġscream": 1681,
      "Ġcourse": 1682,
      "ney": 1683,
      "Ġsmart": 1684,
      "Ġcave": 1685,
      "Ġbring": 1686,
      "Ġteac": 1687,
      "ier": 1688,
      "Ġmin": 1689,
      "Ġprincess": 1690,
      "Ġseemed": 1691,
      "ĠWh": 1692,
      "Ġpie": 1693,
      "Ġhappen": 1694,
      "Ġsmo": 1695,
      "Ġfairy": 1696,
      "Ġtoday": 1697,
      "ĠGrandma": 1698,
      "Ġswam": 1699,
      "Ġcheered": 1700,
      "Ġshop": 1701,
      "Ġcarrot": 1702,
      "Ġtower": 1703,
      "Ġdrove": 1704,
      "Ġpig": 1705,
      "Ġthrew": 1706,
      "fused": 1707,
      "Ġalong": 1708,
      "Ġfree": 1709,
      "Ġdes": 1710,
      "Ġwouldn": 1711,
      "Ġshoes": 1712,
      "Ġtiny": 1713,
      "Ġcoll": 1714,
      "oun": 1715,
      "itty": 1716,
      "Ġaccident": 1717,
      "Ġwin": 1718,
      "ĠLater": 1719,
      "Ġpushed": 1720,
      "Ġhoped": 1721,
      "ible": 1722,
      "sy": 1723,
      "Ġupset": 1724,
      "Ġdropped": 1725,
      "Ġwelcome": 1726,
      "Do": 1727,
      "Ġpack": 1728,
      "Ġthough": 1729,
      "Ġjour": 1730,
      "Ġbrown": 1731,
      "Ġsea": 1732,
      "Ġadventures": 1733,
      "Ġplac": 1734,
      "Ġfruit": 1735,
      "Ġob": 1736,
      "Ġrelie": 1737,
      "Ġinst": 1738,
      "Ġpower": 1739,
      "cked": 1740,
      "vel": 1741,
      "Ġexplained": 1742,
      "Ġpres": 1743,
      "asket": 1744,
      "Ġteacher": 1745,
      "Ġes": 1746,
      "Ġbasket": 1747,
      "Ġdry": 1748,
      "Ġcaught": 1749,
      "Ġcarry": 1750,
      "bow": 1751,
      "Ġexp": 1752,
      "Ġtaking": 1753,
      "Ġnearby": 1754,
      "cle": 1755,
      "ead": 1756,
      "Ġruns": 1757,
      "ions": 1758,
      "OK": 1759,
      "ward": 1760,
      "Ġspr": 1761,
      "Ġcolour": 1762,
      "yard": 1763,
      "ung": 1764,
      "Ġswings": 1765,
      "Ġrainbow": 1766,
      "ts": 1767,
      "Ġ3": 1768,
      "Ġwoke": 1769,
      "Ġgames": 1770,
      "Ġstre": 1771,
      "Ġbackyard": 1772,
      "Ġlaughing": 1773,
      "Ġhor": 1774,
      "Ġforget": 1775,
      "Ġwell": 1776,
      "ail": 1777,
      "Ġsang": 1778,
      "Ġnaught": 1779,
      "vered": 1780,
      "Ġsunny": 1781,
      "Ġcreature": 1782,
      "ale": 1783,
      "Ġwish": 1784,
      "Ġwise": 1785,
      "Ġdist": 1786,
      "Ġpast": 1787,
      "Ġmoved": 1788,
      "Ġbucket": 1789,
      "Ġwings": 1790,
      "Ġlunch": 1791,
      "Ġyard": 1792,
      "Ġshook": 1793,
      "Ġpresent": 1794,
      "ocked": 1795,
      "Ġlate": 1796,
      "Ġcou": 1797,
      "Ġnaughty": 1798,
      "Ġmine": 1799,
      "orrow": 1800,
      "pping": 1801,
      "Ġtrou": 1802,
      "Ġnoises": 1803,
      "Ġthrow": 1804,
      "Ġstars": 1805,
      "ĠSammy": 1806,
      "ord": 1807,
      "Ġnothing": 1808,
      "Ġbelong": 1809,
      "itting": 1810,
      "Ġrocks": 1811,
      "pe": 1812,
      "Ġsoup": 1813,
      "issed": 1814,
      "Ġinv": 1815,
      "Ġrelieved": 1816,
      "Ġmark": 1817,
      "Ġwhist": 1818,
      "Ġspoon": 1819,
      "Ġleg": 1820,
      "ĠEmily": 1821,
      "Ġneighbor": 1822,
      "Ġboun": 1823,
      "Ġhar": 1824,
      "Ġlife": 1825,
      "Ġsinging": 1826,
      "Ġswimming": 1827,
      "aur": 1828,
      "Ġce": 1829,
      "adow": 1830,
      "Ġbutt": 1831,
      "Ġtouched": 1832,
      "ĠJenny": 1833,
      "gged": 1834,
      "Ġbush": 1835,
      "Ġsick": 1836,
      "Ġtom": 1837,
      "Ġhit": 1838,
      "ĠTheir": 1839,
      "llo": 1840,
      "Ġpatient": 1841,
      "ped": 1842,
      "ining": 1843,
      "Ġben": 1844,
      "ĠMummy": 1845,
      "Ġfeels": 1846,
      "Ġlift": 1847,
      "Ġvill": 1848,
      "Ġfence": 1849,
      "idge": 1850,
      "sting": 1851,
      "Ġjar": 1852,
      "Ġexciting": 1853,
      "ountain": 1854,
      "Ġbusy": 1855,
      "Ġbreat": 1856,
      "Ġgigg": 1857,
      "oose": 1858,
      "Ġdays": 1859,
      "Ġintere": 1860,
      "Ġpeace": 1861,
      "Ġdriver": 1862,
      "Lily": 1863,
      "Ġeas": 1864,
      "alm": 1865,
      "Ġsmiling": 1866,
      "Ġhugs": 1867,
      "Ġchair": 1868,
      "Ġwondered": 1869,
      "aughter": 1870,
      "ness": 1871,
      "Ġresp": 1872,
      "ĠCh": 1873,
      "ost": 1874,
      "Ġaf": 1875,
      "shine": 1876,
      "Ġdrink": 1877,
      "Ġmiss": 1878,
      "anch": 1879,
      "Ġneck": 1880,
      "Ġbranch": 1881,
      "thday": 1882,
      "Ġpath": 1883,
      "to": 1884,
      "ize": 1885,
      "Ġdisco": 1886,
      "Ġcute": 1887,
      "Ġholding": 1888,
      "een": 1889,
      "Ġmyster": 1890,
      "Ġsunshine": 1891,
      "Ġshapes": 1892,
      "Ġbought": 1893,
      "Ġinc": 1894,
      "Ġpudd": 1895,
      "Ġadm": 1896,
      "ĠWith": 1897,
      "Ġcozy": 1898,
      "Ġdanced": 1899,
      "Ġjuice": 1900,
      "ndp": 1901,
      "Ġeag": 1902,
      "Ġkey": 1903,
      "Ġwatching": 1904,
      "Ġarms": 1905,
      "Of": 1906,
      "Ġletter": 1907,
      "Ġret": 1908,
      "Ġwhe": 1909,
      "Ġnose": 1910,
      "Ġmail": 1911,
      "Ġpointed": 1912,
      "ĠTogether": 1913,
      "Ġear": 1914,
      "itten": 1915,
      "Ġturns": 1916,
      "Ġsur": 1917,
      "Ġsitting": 1918,
      "Ġcir": 1919,
      "ert": 1920,
      "Ġpass": 1921,
      "Ġbirthday": 1922,
      "board": 1923,
      "Hey": 1924,
      "ove": 1925,
      "Ġsack": 1926,
      "raid": 1927,
      "Ġretur": 1928,
      "Ġhello": 1929,
      "Ġnest": 1930,
      "Ġcomes": 1931,
      "Ġcraw": 1932,
      "Ġjourney": 1933,
      "Ġdelight": 1934,
      "Ġaccidentally": 1935,
      "Ġafraid": 1936,
      "Come": 1937,
      "Ġpract": 1938,
      "Ġthin": 1939,
      "ĠCome": 1940,
      "Ġwra": 1941,
      "read": 1942,
      "Ġfit": 1943,
      "amed": 1944,
      "Ġhuge": 1945,
      "Ġcho": 1946,
      "Ġdaughter": 1947,
      "irt": 1948,
      "ĠThank": 1949,
      "Ġtasted": 1950,
      "ball": 1951,
      "og": 1952,
      "Ġsounds": 1953,
      "la": 1954,
      "Ġbur": 1955,
      "Ġcor": 1956,
      "Ġinteresting": 1957,
      "Ġtun": 1958,
      "let": 1959,
      "Ġshr": 1960,
      "Ġact": 1961,
      "ont": 1962,
      "Ġround": 1963,
      "ittens": 1964,
      "blem": 1965,
      "Ġpiece": 1966,
      "fish": 1967,
      "Ġent": 1968,
      "Ġpurp": 1969,
      "Ġonto": 1970,
      "Ġanyone": 1971,
      "Ġorgan": 1972,
      "Ġfront": 1973,
      "Ġproblem": 1974,
      "Ġtear": 1975,
      "Ġmist": 1976,
      "Ġstories": 1977,
      "Ġclouds": 1978,
      "Ġbottle": 1979,
      "Ġinstead": 1980,
      "Ġkick": 1981,
      "Ġres": 1982,
      "ĠJake": 1983,
      "Ġlovely": 1984,
      "Ġsearched": 1985,
      "Ġrob": 1986,
      "Ġhorse": 1987,
      "ndpa": 1988,
      "Ġmad": 1989,
      "ĠBe": 1990,
      "Ġcrayons": 1991,
      "Ġphone": 1992,
      "Ġcoin": 1993,
      "epend": 1994,
      "ĠAlice": 1995,
      "sie": 1996,
      "Ġsuc": 1997,
      "Ġband": 1998,
      "Ġhoney": 1999,
      "Ġlucky": 2000,
      "Ġwhich": 2001,
      "Ġimag": 2002,
      "Ġtasty": 2003,
      "Ġbench": 2004,
      "Ġrobot": 2005,
      "Ġspo": 2006,
      "Ġquest": 2007,
      "Ġcomfort": 2008,
      "ĠJohnny": 2009,
      "Ġforever": 2010,
      "Ġcard": 2011,
      "Ġplane": 2012,
      "Ġwrite": 2013,
      "Ġsmelled": 2014,
      "Ġcollect": 2015,
      "ten": 2016,
      "ity": 2017,
      "Ġking": 2018,
      "Ġappeared": 2019,
      "Ġpurple": 2020,
      "ces": 2021,
      "Ġ'": 2022,
      "Ġbal": 2023,
      "ĠPeter": 2024,
      "Ġstreet": 2025,
      "Ġvillage": 2026,
      "ĠBu": 2027,
      "Ġash": 2028,
      "Ġgrab": 2029,
      "Ġfarm": 2030,
      "col": 2031,
      "Ġperson": 2032,
      "Ġlad": 2033,
      "Ġspid": 2034,
      "Ġspotted": 2035,
      "Ġsnowman": 2036,
      "Ġsearch": 2037,
      "Ġminut": 2038,
      "itch": 2039,
      "Ġwhole": 2040,
      "arp": 2041,
      "arge": 2042,
      "Ġgather": 2043,
      "Ġshining": 2044,
      "Ġteach": 2045,
      "Ġrolled": 2046,
      "Ġap": 2047,
      "Ġpool": 2048,
      "Ġwaiting": 2049,
      "Ġsandw": 2050,
      "Ġemb": 2051,
      "Good": 2052,
      "Ġfing": 2053,
      "Ġspin": 2054,
      "Ġbuilding": 2055,
      "Ġwild": 2056,
      "Ġegg": 2057,
      "Ġeventually": 2058,
      "Ġasleep": 2059,
      "Ġmeet": 2060,
      "Ġprot": 2061,
      "Ġhope": 2062,
      "ĠKitty": 2063,
      "Ġsaf": 2064,
      "ird": 2065,
      "Ġstar": 2066,
      "Ġspicy": 2067,
      "Ġtakes": 2068,
      "Ġstorm": 2069,
      "ced": 2070,
      "obby": 2071,
      "ery": 2072,
      "Ġmach": 2073,
      "Ġwearing": 2074,
      "Ġsplas": 2075,
      "nic": 2076,
      "Ġcow": 2077,
      "arra": 2078,
      "cean": 2079,
      "els": 2080,
      "Ġpicnic": 2081,
      "Ġladder": 2082,
      "Ġembarra": 2083,
      "unt": 2084,
      "Ġocean": 2085,
      "Ġspent": 2086,
      "Ġhelpful": 2087,
      "Ġant": 2088,
      "Ġhealthy": 2089,
      "Ġsharp": 2090,
      "Ġfoot": 2091,
      "Ġanswer": 2092,
      "Ġscreamed": 2093,
      "Ġplaces": 2094,
      "Ġprotect": 2095,
      "lebr": 2096,
      "Ġlem": 2097,
      "Ġfeather": 2098,
      "Ġlay": 2099,
      "Ġnut": 2100,
      "ometimes": 2101,
      "Ġclever": 2102,
      "Ġcelebr": 2103,
      "My": 2104,
      "Ġsol": 2105,
      "Ġrec": 2106,
      "oph": 2107,
      "ours": 2108,
      "Ġlarge": 2109,
      "Ġshy": 2110,
      "Ġfold": 2111,
      "ular": 2112,
      "Ġpile": 2113,
      "ĠAnn": 2114,
      "Ġremind": 2115,
      "Ġzoom": 2116,
      "Ġblew": 2117,
      "Ġoven": 2118,
      "izz": 2119,
      "Ġconfused": 2120,
      "Ġrocket": 2121,
      "Ġtrip": 2122,
      "inted": 2123,
      "Ġlater": 2124,
      "ors": 2125,
      "Ġtalked": 2126,
      "Ġwide": 2127,
      "Ġpush": 2128,
      "erly": 2129,
      "isa": 2130,
      "Ġseek": 2131,
      "Ġapples": 2132,
      "Ġtalking": 2133,
      "Ġpuddle": 2134,
      "ese": 2135,
      "Ġkitten": 2136,
      "Ġmatter": 2137,
      "Ġcorner": 2138,
      "Ġroad": 2139,
      "Ġval": 2140,
      "Ġcouch": 2141,
      "Ġtrouble": 2142,
      "den": 2143,
      "Ġser": 2144,
      "Ġwave": 2145,
      "Ġforward": 2146,
      "Ġkiss": 2147,
      "Ġfinish": 2148,
      "Ġfurry": 2149,
      "Ġdisappo": 2150,
      "Ġembarrassed": 2151,
      "ond": 2152,
      "Ġpill": 2153,
      "Ġcoat": 2154,
      "ĠSusie": 2155,
      "Ġbugs": 2156,
      "ĠWhile": 2157,
      "hin": 2158,
      "Ġmil": 2159,
      "ĠLisa": 2160,
      "Ġsmooth": 2161,
      "Ġrespect": 2162,
      "Ġcalm": 2163,
      "Ġmed": 2164,
      "Ġmind": 2165,
      "ĠHow": 2166,
      "Ġseat": 2167,
      "Ġwhenever": 2168,
      "Ġmud": 2169,
      "Ġdrive": 2170,
      "ĠPet": 2171,
      "Ġpowerful": 2172,
      "per": 2173,
      "Ġfeet": 2174,
      "Ġcheer": 2175,
      "Ġimpre": 2176,
      "Ġbread": 2177,
      "Ġgently": 2178,
      "Ġign": 2179,
      "lex": 2180,
      "Ġpuzz": 2181,
      "Ġtaste": 2182,
      "airs": 2183,
      "Ġspider": 2184,
      "old": 2185,
      "ĠSt": 2186,
      "ĠSome": 2187,
      "cks": 2188,
      "Ġstep": 2189,
      "Ġloves": 2190,
      "Ġcarried": 2191,
      "Ġbubble": 2192,
      "ancy": 2193,
      "ungle": 2194,
      "up": 2195,
      "Ġhon": 2196,
      "ĠTeddy": 2197,
      "ĠMittens": 2198,
      "Ġjungle": 2199,
      "Ġhidden": 2200,
      "Ġmysterious": 2201,
      "Ġdisappointed": 2202,
      "Ġsal": 2203,
      "Ġstring": 2204,
      "ult": 2205,
      "Ġbreath": 2206,
      "Ġgar": 2207,
      "ato": 2208,
      "getable": 2209,
      "Ġlast": 2210,
      "ax": 2211,
      "ground": 2212,
      "Ġgas": 2213,
      "Ġpretended": 2214,
      "Ġvegetable": 2215,
      "ĠPete": 2216,
      "Ġshirt": 2217,
      "Ġslid": 2218,
      "Ġgroup": 2219,
      "Ġgives": 2220,
      "Ġfixed": 2221,
      "Ġmilk": 2222,
      "ĠEven": 2223,
      "Ġpromise": 2224,
      "gly": 2225,
      "ĠSometimes": 2226,
      "Ġugly": 2227,
      "Ġstood": 2228,
      "Ġcookie": 2229,
      "Ġducks": 2230,
      "Ġhiding": 2231,
      "Ġtightly": 2232,
      "Ġdirt": 2233,
      "Ġsongs": 2234,
      "Ġbark": 2235,
      "Ġnet": 2236,
      "Ġstone": 2237,
      "Ġvase": 2238,
      "Ġchest": 2239,
      "Ġsleepy": 2240,
      "eterm": 2241,
      "osaur": 2242,
      "Ġwhistle": 2243,
      "Ġlemon": 2244,
      "eb": 2245,
      "ĠTV": 2246,
      "Ġdeterm": 2247,
      "Ġpar": 2248,
      "Ġstir": 2249,
      "Ġstra": 2250,
      "Ġspread": 2251,
      "ĠEverywhere": 2252,
      "Ġstanding": 2253,
      "cap": 2254,
      "Ġfancy": 2255,
      "era": 2256,
      "owed": 2257,
      "ĠLe": 2258,
      "ĠLittle": 2259,
      "ife": 2260,
      "Ġknee": 2261,
      "Ġcheese": 2262,
      "Ġmachine": 2263,
      "ĠBr": 2264,
      "Ġdecor": 2265,
      "Ġgrew": 2266,
      "Tom": 2267,
      "Ġcoo": 2268,
      "Ġrope": 2269,
      "pper": 2270,
      "Ġspe": 2271,
      "Ġlaw": 2272,
      "Ġforgive": 2273,
      "Ġsparkly": 2274,
      "Ġgarage": 2275,
      "Ġple": 2276,
      "Ġshell": 2277,
      "Ġmeadow": 2278,
      "Ġflag": 2279,
      "dle": 2280,
      "Ġwash": 2281,
      "Ġmot": 2282,
      "Ġstret": 2283,
      "ĠBobby": 2284,
      "Ġmeant": 2285,
      "Ġfaces": 2286,
      "Ġblow": 2287,
      "Ġbecome": 2288,
      "Ġyelled": 2289,
      "ĠTweety": 2290,
      "ighed": 2291,
      "?\".": 2292,
      "vous": 2293,
      "Ġsel": 2294,
      "cept": 2295,
      "Ġreg": 2296,
      "Ġmoon": 2297,
      "Ġwip": 2298,
      "Ġber": 2299,
      "Ġpop": 2300,
      "Ġsave": 2301,
      "umber": 2302,
      "Ġtrust": 2303,
      "Ġrude": 2304,
      "Ġdancing": 2305,
      "Ġemp": 2306,
      "Where": 2307,
      "cer": 2308,
      "Ġtid": 2309,
      "Ġtest": 2310,
      "Ġhours": 2311,
      "Ġdinosaur": 2312,
      "Ġmatch": 2313,
      "Ġsuccess": 2314,
      "ual": 2315,
      "Ġban": 2316,
      "Ġfig": 2317,
      "Ġmountain": 2318,
      "ĠMar": 2319,
      "als": 2320,
      "Ġpeaceful": 2321,
      "Ġempty": 2322,
      "Ġsour": 2323,
      "Ġknocked": 2324,
      "Ġsticks": 2325,
      "aking": 2326,
      "light": 2327,
      "Ġpour": 2328,
      "Ġgen": 2329,
      "Ġfighting": 2330,
      "Ġtomorrow": 2331,
      "'d": 2332,
      "ying": 2333,
      "ĠZ": 2334,
      "Ġlive": 2335,
      "izzy": 2336,
      "Ġsnake": 2337,
      "Ġsupp": 2338,
      "Ġplants": 2339,
      "Ġashamed": 2340,
      "Ġner": 2341,
      "Ġcage": 2342,
      "Ġflut": 2343,
      "Ġqueen": 2344,
      "lower": 2345,
      "Ġthese": 2346,
      "Ġjumping": 2347,
      "Ġselfish": 2348,
      "Ġteet": 2349,
      "Ġwore": 2350,
      "Ġpaw": 2351,
      "itter": 2352,
      "Ġroar": 2353,
      "ĠEll": 2354,
      "Ġchased": 2355,
      "Ġanswered": 2356,
      "Ġcirc": 2357,
      "Ġmotor": 2358,
      "Ġnervous": 2359,
      "Ġteeth": 2360,
      "St": 2361,
      "Ġhel": 2362,
      "Ġhears": 2363,
      "Ġdi": 2364,
      "oman": 2365,
      "Ġchick": 2366,
      "Ġgiant": 2367,
      "Ġpolite": 2368,
      "Ġbarked": 2369,
      "Please": 2370,
      "Ġwoman": 2371,
      "arn": 2372,
      "Ġbell": 2373,
      "Ġmummy": 2374,
      "Ġmaybe": 2375,
      "Ġgun": 2376,
      "Ġyarn": 2377,
      "Ġhopping": 2378,
      "Ġknowing": 2379,
      "Ġsplash": 2380,
      "Ġjew": 2381,
      "Ġbutton": 2382,
      "most": 2383,
      "ym": 2384,
      "Ġcart": 2385,
      "Ġpizz": 2386,
      "iddle": 2387,
      "Ġplayground": 2388,
      "ĠGo": 2389,
      "Ġzoo": 2390,
      "Ġeasy": 2391,
      "Ġminutes": 2392,
      "ital": 2393,
      "Ġpri": 2394,
      "Ġhang": 2395,
      "Ġsharing": 2396,
      "Ġhosp": 2397,
      "Ġlanded": 2398,
      "Ġmic": 2399,
      "ones": 2400,
      "Ġalmost": 2401,
      "Ġgray": 2402,
      "Ġsnacks": 2403,
      "Ġcarrots": 2404,
      "Ġhospital": 2405,
      "Ġgoes": 2406,
      "Ġexam": 2407,
      "Ġpoor": 2408,
      "Ġdrew": 2409,
      "Ġspray": 2410,
      "Ġchocol": 2411,
      "Now": 2412,
      "Ġhum": 2413,
      "Ġpin": 2414,
      "Ġweek": 2415,
      "aser": 2416,
      "umpy": 2417,
      "Ġgiggled": 2418,
      "Ġreturned": 2419,
      "Ġbalance": 2420,
      "ĠLeo": 2421,
      "port": 2422,
      "Ġpas": 2423,
      "anut": 2424,
      "Ġshelf": 2425,
      "Ġweak": 2426,
      "Ġwhis": 2427,
      "urse": 2428,
      "Ġbedroom": 2429,
      "Ġneckl": 2430,
      "Ġdetermined": 2431,
      "Ġpassed": 2432,
      "Ġhur": 2433,
      "Ġfil": 2434,
      "Ġmissed": 2435,
      "Ġknight": 2436,
      "Ġswan": 2437,
      "Ġunus": 2438,
      "Ġtells": 2439,
      "Ġunderstood": 2440,
      "Ġcrab": 2441,
      "Ġdisappeared": 2442,
      "Ġbathroom": 2443,
      "Ġunusual": 2444,
      "Wh": 2445,
      "aid": 2446,
      "cy": 2447,
      "Ġsaved": 2448,
      "Ġship": 2449,
      "Ġasking": 2450,
      "Ġjam": 2451,
      "Ġexcite": 2452,
      "Ġskipped": 2453,
      "box": 2454,
      "Ġmarch": 2455,
      "Ġbanan": 2456,
      "Ġpizza": 2457,
      "Ġchocolate": 2458,
      "pack": 2459,
      "ĠDon": 2460,
      "Ġtaught": 2461,
      "Ġchew": 2462,
      "Ġcreative": 2463,
      "Ġescap": 2464,
      "Ġtag": 2465,
      "Ġcross": 2466,
      "Ġclown": 2467,
      "Ġlead": 2468,
      "ustr": 2469,
      "andy": 2470,
      "ensive": 2471,
      "ĠMrs": 2472,
      "Ġexpensive": 2473,
      "Ġexcitement": 2474,
      "Ġwaves": 2475,
      "Ġline": 2476,
      "Ġyourself": 2477,
      "Ġtreats": 2478,
      "Ġcolourful": 2479,
      "Ġtears": 2480,
      "Ġtidy": 2481,
      "Ġgener": 2482,
      "Stop": 2483,
      "dge": 2484,
      "not": 2485,
      "Ġmiddle": 2486,
      "orry": 2487,
      "Ġtool": 2488,
      "ĠWhy": 2489,
      "Ġfear": 2490,
      "Ġputs": 2491,
      "Ġfluffy": 2492,
      "ĠDucky": 2493,
      "ecially": 2494,
      "ĠRed": 2495,
      "Ġgathered": 2496,
      "pecially": 2497,
      "ub": 2498,
      "Ġlit": 2499,
      "ork": 2500,
      "Ġoften": 2501,
      "Ġplate": 2502,
      "Ġboard": 2503,
      "Ġfeed": 2504,
      "Ġdogs": 2505,
      "Ġtea": 2506,
      "Ġcrack": 2507,
      "Ġespecially": 2508,
      ",âĢĿ": 2509,
      "ian": 2510,
      "Ġter": 2511,
      "Ġbone": 2512,
      "ating": 2513,
      "iger": 2514,
      "Ġcannot": 2515,
      "Ġnods": 2516,
      "Ġscar": 2517,
      "Ġfrustr": 2518,
      "ush": 2519,
      "Ġwagged": 2520,
      "ano": 2521,
      "unk": 2522,
      "illi": 2523,
      "Ġtrue": 2524,
      "ĠPlease": 2525,
      "Ġjoke": 2526,
      "Ġwalks": 2527,
      "Ġmarble": 2528,
      "Ġvegetables": 2529,
      "Ġgenerous": 2530,
      "Ġrid": 2531,
      "Ġscr": 2532,
      "iff": 2533,
      "Ġtaken": 2534,
      "Ġtwirl": 2535,
      "Ġglow": 2536,
      "Ġthankful": 2537,
      "ĠToday": 2538,
      "Ġmarket": 2539,
      "Ġsandwich": 2540,
      "Ġnecklace": 2541,
      "Ġed": 2542,
      "Ġav": 2543,
      "Ġsil": 2544,
      "Ġlock": 2545,
      "Ġcloth": 2546,
      "Ġmanag": 2547,
      "Ġbridge": 2548,
      "Ġcalling": 2549,
      "Ġaccept": 2550,
      "Ġcontent": 2551,
      "Ġpolice": 2552,
      "Ġlegs": 2553,
      "Ġsplashed": 2554,
      "Ġpillow": 2555,
      "Ġfrustrated": 2556,
      "ĠBet": 2557,
      "ĠTweetie": 2558,
      "pill": 2559,
      "Ġadd": 2560,
      "Ġwander": 2561,
      "Ġpan": 2562,
      "Ġrough": 2563,
      "Ġsoap": 2564,
      "Ġshore": 2565,
      "Ġang": 2566,
      "Ġmeasure": 2567,
      "que": 2568,
      "Ġdrawing": 2569,
      "Ġleaf": 2570,
      "Ġperform": 2571,
      "Ġtunn": 2572,
      "Ġterri": 2573,
      "bin": 2574,
      "ches": 2575,
      "work": 2576,
      "Ġtick": 2577,
      "imp": 2578,
      "Ġclass": 2579,
      "Ġworm": 2580,
      "elly": 2581,
      "Ġpeanut": 2582,
      "Ġmoving": 2583,
      "Ġglue": 2584,
      "Ġruined": 2585,
      "Ġsweetie": 2586,
      "Ġsailed": 2587,
      "ti": 2588,
      "Ġbored": 2589,
      "Ġfather": 2590,
      "erpill": 2591,
      "Ġclap": 2592,
      "Ġcovered": 2593,
      "Ġflash": 2594,
      "Ġcaterpill": 2595,
      "selves": 2596,
      "ĠCl": 2597,
      "Ġpainting": 2598,
      "Ġdistance": 2599,
      "Ġfinger": 2600,
      "Who": 2601,
      "uce": 2602,
      "iness": 2603,
      "Ġhorn": 2604,
      "Ġdepend": 2605,
      "Ġlog": 2606,
      "Ġsmelly": 2607,
      "Ġhappening": 2608,
      "Ġhonest": 2609,
      "Ġsight": 2610,
      "reen": 2611,
      "Ġcri": 2612,
      "Ġmir": 2613,
      "Ġpir": 2614,
      "Ġchange": 2615,
      "Ġcloset": 2616,
      "Ġpointing": 2617,
      "Ġpuzzle": 2618,
      "Ġcaterpillar": 2619,
      "ination": 2620,
      "Ġlying": 2621,
      "Ġstuff": 2622,
      "Ġgold": 2623,
      "illed": 2624,
      "Ġlazy": 2625,
      "Ġpus": 2626,
      "Ġclear": 2627,
      "Ġcheck": 2628,
      "Ġcrown": 2629,
      "Ġdiscovered": 2630,
      "ĠBrown": 2631,
      "Ġpleased": 2632,
      "gy": 2633,
      "Ġwis": 2634,
      "arl": 2635,
      "ator": 2636,
      "Ġthick": 2637,
      "Ġboss": 2638,
      "ĠEventually": 2639,
      "Ġrealised": 2640,
      "Ġmighty": 2641,
      "Ġpenny": 2642,
      "Ġincred": 2643,
      "Ġspoil": 2644,
      "Ġscarf": 2645,
      "mb": 2646,
      "ps": 2647,
      "ilt": 2648,
      "Ġweird": 2649,
      "Ġdrum": 2650,
      "Ġmessy": 2651,
      "Ġtries": 2652,
      "Ġeager": 2653,
      "ror": 2654,
      "Ġboring": 2655,
      "Ġdest": 2656,
      "Ġok": 2657,
      "Ġgate": 2658,
      "ured": 2659,
      "ĠFr": 2660,
      "illiant": 2661,
      "Ġsighed": 2662,
      "Ġfake": 2663,
      "Ġdish": 2664,
      "ony": 2665,
      "ets": 2666,
      "ĠMark": 2667,
      "Ġanc": 2668,
      "Ġgoat": 2669,
      "Ġcact": 2670,
      "Ġcabin": 2671,
      "Ġbrilliant": 2672,
      "Ġmod": 2673,
      "issors": 2674,
      "Ben": 2675,
      "Ġbitter": 2676,
      "imed": 2677,
      "ots": 2678,
      "alous": 2679,
      "ĠEnd": 2680,
      "Ġpray": 2681,
      "Ġchoose": 2682,
      "Ġbull": 2683,
      "Ġeye": 2684,
      "ĠGrace": 2685,
      "Ġjealous": 2686,
      "Ġcomfortable": 2687,
      "Ġfigure": 2688,
      "Ġmanaged": 2689,
      "Ġdependable": 2690,
      "Ġancient": 2691,
      "Are": 2692,
      "Ġtent": 2693,
      "Ġpil": 2694,
      "orge": 2695,
      "oof": 2696,
      "Ġscissors": 2697,
      "Ġworking": 2698,
      "Ġstronger": 2699,
      "Ġdrank": 2700,
      "Ġcactus": 2701,
      "Ġtank": 2702,
      "Ġcop": 2703,
      "Ġcries": 2704,
      "Ġones": 2705,
      "Ġspend": 2706,
      "Ġfrown": 2707,
      "Ġpainted": 2708,
      "Ġdeer": 2709,
      "Ġzipp": 2710,
      "Ġorganized": 2711,
      "Ġedge": 2712,
      "Sorry": 2713,
      "ject": 2714,
      "ĠU": 2715,
      "Ġwand": 2716,
      "Ġwagon": 2717,
      "Ġgoose": 2718,
      "Ġstones": 2719,
      "Ġsold": 2720,
      "Ġwealthy": 2721,
      "ĠDan": 2722,
      "Ġjog": 2723,
      "Ġquestions": 2724,
      "Ġsafely": 2725,
      "Ġjewel": 2726,
      "Ġpay": 2727,
      "ory": 2728,
      "Ġonce": 2729,
      "Ġbody": 2730,
      "ested": 2731,
      "Ġpee": 2732,
      "Ġsunf": 2733,
      "ĠGe": 2734,
      "Ġprince": 2735,
      "Ġwalls": 2736,
      "Ġmixed": 2737,
      "umbers": 2738,
      "Ġpacked": 2739,
      "Ġincredible": 2740,
      "Tim": 2741,
      "Well": 2742,
      "land": 2743,
      "Ġer": 2744,
      "Ġtask": 2745,
      "Ġbake": 2746,
      "ately": 2747,
      "Ġkissed": 2748,
      "Ġgrace": 2749,
      "Ġsmaller": 2750,
      "Ġneeds": 2751,
      "Ġterrible": 2752,
      "Ġmirror": 2753,
      "fic": 2754,
      "oe": 2755,
      "Ġsugg": 2756,
      "ina": 2757,
      "Ġfis": 2758,
      "Ġcam": 2759,
      "Ġnumber": 2760,
      "Ġring": 2761,
      "Ġfork": 2762,
      "Ġseed": 2763,
      "Ġsell": 2764,
      "asing": 2765,
      "Ġcover": 2766,
      "Ġord": 2767,
      "Ġtowel": 2768,
      "Ġbushes": 2769,
      "Ġmistake": 2770,
      "ĠBl": 2771,
      "Ġdolp": 2772,
      "Ġnod": 2773,
      "Ġballs": 2774,
      "Ġpicking": 2775,
      "Ġgrumpy": 2776,
      "Ġhurts": 2777,
      "Ġbelonged": 2778,
      "Ġmedic": 2779,
      "ique": 2780,
      "Ġfu": 2781,
      "Ġnumbers": 2782,
      "ote": 2783,
      "adi": 2784,
      "Ġdecide": 2785,
      "berry": 2786,
      "ĠPolly": 2787,
      "Ġadventur": 2788,
      "Ġunique": 2789,
      "Ġtrucks": 2790,
      "Ġdiffic": 2791,
      "Ġsquare": 2792,
      "Ġdesk": 2793,
      "Ġharm": 2794,
      "Ġcrawled": 2795,
      "Ġpractice": 2796,
      "Ġsuccessful": 2797,
      "Ġtunnel": 2798,
      "ĠGeorge": 2799,
      "Ġcamera": 2800,
      "Ġmedicine": 2801,
      "hip": 2802,
      "keep": 2803,
      "umsy": 2804,
      "Ġbrush": 2805,
      "Ġabove": 2806,
      "oby": 2807,
      "Ġenvel": 2808,
      "Ġfridge": 2809,
      "ĠGrandpa": 2810,
      "Ġdelighted": 2811,
      "Ġwrapped": 2812,
      "Ġadventurous": 2813,
      "edient": 2814,
      "Ġcher": 2815,
      "Ġheal": 2816,
      "ates": 2817,
      "elp": 2818,
      "Ġgrand": 2819,
      "Ġdrop": 2820,
      "Ġprep": 2821,
      "eez": 2822,
      "Ġbottom": 2823,
      "umbled": 2824,
      "Ġcircles": 2825,
      "Ġflashlight": 2826,
      "Ġdifficult": 2827,
      "vice": 2828,
      "ĠToby": 2829,
      "anged": 2830,
      "ĠIf": 2831,
      "ĠOK": 2832,
      "Ġears": 2833,
      "!\".": 2834,
      "ddy": 2835,
      "Ġkindness": 2836,
      "Ġcleaned": 2837,
      "Ġwrote": 2838,
      "laimed": 2839,
      "Ġstraw": 2840,
      "Ġangel": 2841,
      "keeper": 2842,
      "Ġadded": 2843,
      "Ġtoug": 2844,
      "Ġmeal": 2845,
      "Ġrode": 2846,
      "Ġword": 2847,
      "Ġexclaimed": 2848,
      "ella": 2849,
      "Ġgets": 2850,
      "iable": 2851,
      "Ġenjoying": 2852,
      "Ġreliable": 2853,
      "Ġobedient": 2854,
      "Ġrecord": 2855,
      "Ġimpressed": 2856,
      "Me": 2857,
      "gu": 2858,
      "ha": 2859,
      "Ġext": 2860,
      "head": 2861,
      "Ġdizzy": 2862,
      "ĠSoph": 2863,
      "anger": 2864,
      "Ġclay": 2865,
      "Ġexcitedly": 2866,
      "Ġtape": 2867,
      "Ġexplored": 2868,
      "ĠBobo": 2869,
      "Ġfamous": 2870,
      "ĠRex": 2871,
      "Ġgiving": 2872,
      "Ġprint": 2873,
      "wards": 2874,
      "Ġicy": 2875,
      "Ġham": 2876,
      "Ġstamp": 2877,
      "arth": 2878,
      "Ġbranc": 2879,
      "Ġstrugg": 2880,
      "ipe": 2881,
      "Ġuseful": 2882,
      "Ġbrightly": 2883,
      "Ġdreaming": 2884,
      "Ġrelax": 2885,
      "Ġguess": 2886,
      "Ġfeathers": 2887,
      "ĠMaria": 2888,
      "Ġescape": 2889,
      "Ġenvelope": 2890,
      "Ġbranches": 2891,
      "Help": 2892,
      "aby": 2893,
      "now": 2894,
      "oppy": 2895,
      "yal": 2896,
      "ĠNo": 2897,
      "Ġtiger": 2898,
      "Ġaw": 2899,
      "Ġsna": 2900,
      "ready": 2901,
      "Ġfool": 2902,
      "Ġdull": 2903,
      "aroo": 2904,
      "ĠSm": 2905,
      "ĠSandy": 2906,
      "ats": 2907,
      "rag": 2908,
      "Ġknife": 2909,
      "Ġalready": 2910,
      "Ġboys": 2911,
      "Ġcoins": 2912,
      "Ġchar": 2913,
      "Ġmole": 2914,
      "Ġgrown": 2915,
      "ĠPap": 2916,
      "Ġteam": 2917,
      "Ġusing": 2918,
      "Ġsounded": 2919,
      "Ġzip": 2920,
      "angaroo": 2921,
      "Ġstudy": 2922,
      "uable": 2923,
      "het": 2924,
      "Ġmis": 2925,
      "Ġgum": 2926,
      "Ġrare": 2927,
      "Ġkangaroo": 2928,
      "Ġnosy": 2929,
      "Ġgrandpa": 2930,
      "Ġstranger": 2931,
      "Ġglass": 2932,
      "Ġcompet": 2933,
      "Ġsmoke": 2934,
      "Ġbuttons": 2935,
      "Ġwheel": 2936,
      "Be": 2937,
      "af": 2938,
      "kin": 2939,
      "Ġsug": 2940,
      "Ġrich": 2941,
      "Ġchir": 2942,
      "Ġyours": 2943,
      "Ġpebble": 2944,
      "Ġskip": 2945,
      "Ġkinds": 2946,
      "Ġdead": 2947,
      "Ġpatch": 2948,
      "Ġfavour": 2949,
      "ola": 2950,
      "Ġvaluable": 2951,
      "Ġdolphin": 2952,
      "Ġtough": 2953,
      "com": 2954,
      "iv": 2955,
      "Ġborrow": 2956,
      "ature": 2957,
      "Ġnorm": 2958,
      "Ġbeet": 2959,
      "Ġeld": 2960,
      "Ġjack": 2961,
      "uring": 2962,
      "Ġclumsy": 2963,
      "aghet": 2964,
      "Ġcarp": 2965,
      "Ġslipped": 2966,
      "Ġloudly": 2967,
      "Ġlights": 2968,
      "Ġfruits": 2969,
      "Ġinvited": 2970,
      "Ġreminded": 2971,
      "Ġbossy": 2972,
      "Ġfoolish": 2973,
      "Ġfavourite": 2974,
      "aghetti": 2975,
      "Ġind": 2976,
      "Ġhunt": 2977,
      "Ġstairs": 2978,
      "Ġspaghetti": 2979,
      "Ġnoisy": 2980,
      "Ġmov": 2981,
      "Ġadvice": 2982,
      "Ġwolf": 2983,
      "ache": 2984,
      "ĠJoey": 2985,
      "Ġleaving": 2986,
      "Ġbags": 2987,
      "Ġdelicate": 2988,
      "body": 2989,
      "Ġcheerful": 2990,
      "Ġsunflower": 2991,
      "Ġeraser": 2992,
      "loo": 2993,
      "Ġfre": 2994,
      "Ġbees": 2995,
      "Ġsock": 2996,
      "Ġloyal": 2997,
      "Ġspun": 2998,
      "Ġscare": 2999,
      "ief": 3000,
      "isted": 3001,
      "ĠPe": 3002,
      "Ġturkey": 3003,
      "Ġwarned": 3004,
      "olog": 3005,
      "Ġcrayon": 3006,
      "Ġsolve": 3007,
      "Ġgasped": 3008,
      "Ġregular": 3009,
      "Ġberries": 3010,
      "Ġcompetit": 3011,
      "Ġsugar": 3012,
      "Ġnormal": 3013,
      "lies": 3014,
      "inal": 3015,
      "Ġcone": 3016,
      "Ġmay": 3017,
      "Ġpant": 3018,
      "ilty": 3019,
      "Ġshone": 3020,
      "Ġrefused": 3021,
      "rage": 3022,
      "Ġchain": 3023,
      "Ġchase": 3024,
      "Ġpost": 3025,
      "Ġbuilt": 3026,
      "Ġpicks": 3027,
      "Ġbald": 3028,
      "Ġguilty": 3029,
      "Ġapolog": 3030,
      "Ġbubbles": 3031,
      "Ġextra": 3032,
      "How": 3033,
      "Ġcamp": 3034,
      "ĠSnow": 3035,
      "iginal": 3036,
      "Ġstri": 3037,
      "Ġhappiness": 3038,
      "Ġrep": 3039,
      "ĠWill": 3040,
      "ages": 3041,
      "ĠDave": 3042,
      "Ġtrack": 3043,
      "Ġskin": 3044,
      "Ġoffice": 3045,
      "Ġbounce": 3046,
      "Ġflute": 3047,
      "emy": 3048,
      "Ġhay": 3049,
      "Ġthose": 3050,
      "Ġshake": 3051,
      "Ġleash": 3052,
      "Ġalert": 3053,
      "ĠWhenever": 3054,
      "Ġlearning": 3055,
      "Ġhandle": 3056,
      "Ġneighbour": 3057,
      "Ġthinking": 3058,
      "Ġsuggested": 3059,
      "ĠPapa": 3060,
      "cou": 3061,
      "nown": 3062,
      "Ġforth": 3063,
      "ĠMike": 3064,
      "Ġdove": 3065,
      "Ġtwig": 3066,
      "Ġmoder": 3067,
      "Ġoriginal": 3068,
      "Ġboxes": 3069,
      "Ġfier": 3070,
      "Ġfright": 3071,
      "Ġcounted": 3072,
      "Ġobject": 3073,
      "Ġadmired": 3074,
      "fast": 3075,
      "known": 3076,
      "time": 3077,
      "und": 3078,
      "Ġtimes": 3079,
      "Ġcorn": 3080,
      "Ġdig": 3081,
      "Ġmoms": 3082,
      "Ġjelly": 3083,
      "ĠFred": 3084,
      "Ġchanged": 3085,
      "Ġsword": 3086,
      "ĠAndy": 3087,
      "berries": 3088,
      "ĠRose": 3089,
      "Ġsett": 3090,
      "Ġtomato": 3091,
      "Ġbanana": 3092,
      "Ġcarpet": 3093,
      "Ġmodern": 3094,
      "Ġfierce": 3095,
      "cil": 3096,
      "Ġcell": 3097,
      "ĠLola": 3098,
      "Ġstream": 3099,
      "Ġroof": 3100,
      "Ġlose": 3101,
      "Ġsaying": 3102,
      "Ġtrop": 3103,
      "eeze": 3104,
      "Ġguard": 3105,
      "Ġpencil": 3106,
      "Ġbreakfast": 3107,
      "Ġjuicy": 3108,
      "Ġattic": 3109,
      "Ġresc": 3110,
      "Ġsalad": 3111,
      "Ġzipper": 3112,
      "Ġpeeked": 3113,
      "Ġelderly": 3114,
      "Here": 3115,
      "See": 3116,
      "cing": 3117,
      "ĠBella": 3118,
      "ention": 3119,
      "Ġhelps": 3120,
      "Ġcareless": 3121,
      "Ġpup": 3122,
      "Ġshowing": 3123,
      "Ġoffered": 3124,
      "Ġending": 3125,
      "ĠRo": 3126,
      "Ġphot": 3127,
      "Ġlifted": 3128,
      "Ġcooking": 3129,
      "ĠBlue": 3130,
      "ĠSmith": 3131,
      "Ġfresh": 3132,
      "Ġfine": 3133,
      "ither": 3134,
      "erry": 3135,
      "Ġmelt": 3136,
      "Ġmap": 3137,
      "omed": 3138,
      "ĠMy": 3139,
      "Ġisland": 3140,
      "ouses": 3141,
      "istent": 3142,
      "Ġthoughtful": 3143,
      "Ġknows": 3144,
      "Ġcleaning": 3145,
      "Ġrushed": 3146,
      "coa": 3147,
      "ĠKate": 3148,
      "Ġquestion": 3149,
      "Ġsearching": 3150,
      "Ġeggs": 3151,
      "comfort": 3152,
      "Ġtrophy": 3153,
      "Ġstumbled": 3154,
      "Ġrat": 3155,
      "Ġsheep": 3156,
      "Ġlicked": 3157,
      "Ġlocked": 3158,
      "Ġthemselves": 3159,
      "Ġlean": 3160,
      "opus": 3161,
      "Ġshows": 3162,
      "urtle": 3163,
      "ctopus": 3164,
      "Ġmaze": 3165,
      "Ġrubbed": 3166,
      "Ġhats": 3167,
      "Ġbatter": 3168,
      "Ġballoons": 3169,
      "Ġcricket": 3170,
      "Ġbeetle": 3171,
      "Ġfrightened": 3172,
      "host": 3173,
      "Ġtie": 3174,
      "Ġbase": 3175,
      "Ġhouses": 3176,
      "Ġoctopus": 3177,
      "iron": 3178,
      "Ġyog": 3179,
      "Ġotter": 3180,
      "Ġtrump": 3181,
      "Ġenv": 3182,
      "Ġencou": 3183,
      "Ġproudly": 3184,
      "Ġuncomfort": 3185,
      "Ġcounting": 3186,
      "oomy": 3187,
      "They": 3188,
      "Ġcelebrate": 3189,
      "Ġspeed": 3190,
      "Ġuncomfortable": 3191,
      "Ġing": 3192,
      "Ġhive": 3193,
      "ress": 3194,
      "Ġfountain": 3195,
      "Ġlamp": 3196,
      "Ġoy": 3197,
      "Ġplayful": 3198,
      "Ġshield": 3199,
      "Ġwhale": 3200,
      "ellig": 3201,
      "Ġintellig": 3202,
      "Ġbeak": 3203,
      "Ġunknown": 3204,
      "Ġdoesn": 3205,
      "Ġshoot": 3206,
      "Ġnuts": 3207,
      "ĠSnowy": 3208,
      "pid": 3209,
      "ud": 3210,
      "xe": 3211,
      "year": 3212,
      "Ġtummy": 3213,
      "Ġaxe": 3214,
      "ndy": 3215,
      "Ġwake": 3216,
      "Ġflex": 3217,
      "erable": 3218,
      "orant": 3219,
      "Ġrice": 3220,
      "Ġcocoa": 3221,
      "Ġvan": 3222,
      "ĠMandy": 3223,
      "Ġcomb": 3224,
      "Ġsnugg": 3225,
      "Ġharder": 3226,
      "Ġlouder": 3227,
      "Ġperm": 3228,
      "Ġdreamed": 3229,
      "redient": 3230,
      "Ġpengu": 3231,
      "Ġstupid": 3232,
      "Ġwhisp": 3233,
      "Ġgraceful": 3234,
      "Ġmiserable": 3235,
      "Ġingredient": 3236,
      "..": 3237,
      "bled": 3238,
      "zzy": 3239,
      "ines": 3240,
      "Ġhook": 3241,
      "Ġwashed": 3242,
      "Ġped": 3243,
      "Ġgem": 3244,
      "Ġthief": 3245,
      "ĠAlex": 3246,
      "ugged": 3247,
      "Ġlaund": 3248,
      "Ġvi": 3249,
      "Ġsorts": 3250,
      "Ġcudd": 3251,
      "Ġsudden": 3252,
      "Ġtrains": 3253,
      "Ġdreams": 3254,
      "Ġshape": 3255,
      "Ġpersistent": 3256,
      "Ġserious": 3257,
      "Ġstretch": 3258,
      "Ġpirate": 3259,
      "Ġtrumpet": 3260,
      "Ġintelligent": 3261,
      "cope": 3262,
      "fa": 3263,
      "gest": 3264,
      "Ġtied": 3265,
      "Ġturtle": 3266,
      "Ġson": 3267,
      "Ġtoast": 3268,
      "Ġled": 3269,
      "Ġghost": 3270,
      "irit": 3271,
      "Ġlibr": 3272,
      "Ġbiggest": 3273,
      "ĠJul": 3274,
      "Ġloll": 3275,
      "Ġload": 3276,
      "Ġfriendship": 3277,
      "Ġscale": 3278,
      "Ġscreen": 3279,
      "Ġagainst": 3280,
      "Ġpole": 3281,
      "Ġsniff": 3282,
      "Ġtelling": 3283,
      "Ġfalls": 3284,
      "ophone": 3285,
      "Ġignorant": 3286,
      "Ġhelm": 3287,
      "Ġhurry": 3288,
      "Ġcharming": 3289,
      "Ġpants": 3290,
      "Ġingredients": 3291,
      "gust": 3292,
      "pes": 3293,
      "Ġlow": 3294,
      "arian": 3295,
      "oop": 3296,
      "Ġraced": 3297,
      "Ġstove": 3298,
      "ipop": 3299,
      "ĠRemy": 3300,
      "Ġdisgust": 3301,
      "Ġrub": 3302,
      "Ġhung": 3303,
      "Ġcandle": 3304,
      "gging": 3305,
      "Ġcarrying": 3306,
      "ĠSophie": 3307,
      "Ġflexible": 3308,
      "Ġwhispered": 3309,
      "Ġlaundry": 3310,
      "Ġlollipop": 3311,
      "Ġfour": 3312,
      "ĠTed": 3313,
      "Ġpale": 3314,
      "lev": 3315,
      "Ġearth": 3316,
      "Ġspace": 3317,
      "Ġbirdie": 3318,
      "Ġjoined": 3319,
      "Ġsparkled": 3320,
      "Ġplaced": 3321,
      "Ġspoke": 3322,
      "Ġchicken": 3323,
      "Ġharmless": 3324,
      "cream": 3325,
      "cano": 3326,
      "Ġahead": 3327,
      "Ġwire": 3328,
      "render": 3329,
      "Ġcity": 3330,
      "Ġur": 3331,
      "Ġshocked": 3332,
      "Ġkitty": 3333,
      "Ġspirit": 3334,
      "Ġroared": 3335,
      "Ġmuff": 3336,
      "Ġfinding": 3337,
      "bborn": 3338,
      "Ġenorm": 3339,
      "emo": 3340,
      "Ġbeauty": 3341,
      "Ġarrow": 3342,
      "ĠNemo": 3343,
      "Ġlaughs": 3344,
      "apping": 3345,
      "ippo": 3346,
      "Ġstubborn": 3347,
      "Ġpackage": 3348,
      "Ġkicked": 3349,
      "Ġwiped": 3350,
      "Ġjacket": 3351,
      "Ġmovie": 3352,
      "Ġenormous": 3353,
      "ience": 3354,
      "Ġiron": 3355,
      "Ġbin": 3356,
      "Ġpow": 3357,
      "Ġgym": 3358,
      "atch": 3359,
      "Ġins": 3360,
      "Ġyet": 3361,
      "Ġstation": 3362,
      "Ġref": 3363,
      "Ġanx": 3364,
      "Ġchose": 3365,
      "Ġcrane": 3366,
      "Ġrestaur": 3367,
      "Ġpige": 3368,
      "Ġdesign": 3369,
      "Ġsurrender": 3370,
      "Ġimagined": 3371,
      "ĠAnnie": 3372,
      "Ġprize": 3373,
      "Ġenvious": 3374,
      "Ġrestaurant": 3375,
      "eer": 3376,
      "oot": 3377,
      "rophone": 3378,
      "ses": 3379,
      "inary": 3380,
      "Ġbump": 3381,
      "Ġfrag": 3382,
      "Ġthirst": 3383,
      "Ġrece": 3384,
      "Ġreind": 3385,
      "Ġleop": 3386,
      "Ġcost": 3387,
      "robe": 3388,
      "Ġdeliver": 3389,
      "Ġmeans": 3390,
      "ations": 3391,
      "Ġreading": 3392,
      "Ġmetal": 3393,
      "Ġshopkeeper": 3394,
      "Ġearly": 3395,
      "Ġfootball": 3396,
      "Ġmicrophone": 3397,
      "Yay": 3398,
      "az": 3399,
      "eat": 3400,
      "ikes": 3401,
      "ocer": 3402,
      "Ġaunt": 3403,
      "Ġtheater": 3404,
      "Ġcro": 3405,
      "Ġstared": 3406,
      "Ġrhin": 3407,
      "ĠJerry": 3408,
      "Ġspilled": 3409,
      "ĠWould": 3410,
      "Ġmush": 3411,
      "Ġtrunk": 3412,
      "Ġquite": 3413,
      "Ġcompl": 3414,
      "Ġsleeping": 3415,
      "Ġsailor": 3416,
      "Ġcomplet": 3417,
      "Ġdiscover": 3418,
      "Ġsurf": 3419,
      "Ġfolder": 3420,
      "Ġtools": 3421,
      "Ġmodest": 3422,
      "Ġpilot": 3423,
      "Ġindepend": 3424,
      "Ġanxious": 3425,
      "Ġthirsty": 3426,
      "Ġreindeer": 3427,
      "oceros": 3428,
      "Ġrhinoceros": 3429,
      "There": 3430,
      "hood": 3431,
      "ĠTony": 3432,
      "Ġherb": 3433,
      "elery": 3434,
      "Ġshut": 3435,
      "seum": 3436,
      "Ġmem": 3437,
      "Ġsadly": 3438,
      "ĠYour": 3439,
      "Ġeng": 3440,
      "Ġraven": 3441,
      "Ġrules": 3442,
      "Ġbelt": 3443,
      "Ġbutterflies": 3444,
      "Ġgrowing": 3445,
      "Ġbarber": 3446,
      "Ġwrap": 3447,
      "Ġdecorate": 3448,
      "Ġfilm": 3449,
      "Ġtwirled": 3450,
      "eezed": 3451,
      "Ġwitch": 3452,
      "Ġbent": 3453,
      "Ġol": 3454,
      "ison": 3455,
      "Ġhero": 3456,
      "ict": 3457,
      "iew": 3458,
      "Ġmuseum": 3459,
      "Ġview": 3460,
      "Ġpepper": 3461,
      "Ġways": 3462,
      "ĠPau": 3463,
      "Ġsuit": 3464,
      "Ġvol": 3465,
      "ggy": 3466,
      "Ġdistant": 3467,
      "Ġcircle": 3468,
      "Ġdestro": 3469,
      "Ġfuel": 3470,
      "Ġviol": 3471,
      "Ġdisgusting": 3472,
      "Ġmushroom": 3473,
      "heart": 3474,
      "Ġtire": 3475,
      "Ġbet": 3476,
      "atter": 3477,
      "imney": 3478,
      "ĠLook": 3479,
      "Ġshiver": 3480,
      "Ġshadow": 3481,
      "illie": 3482,
      "ummer": 3483,
      "Ġchimney": 3484,
      "Ġbloom": 3485,
      "Ġimpat": 3486,
      "Ġframe": 3487,
      "Ġunl": 3488,
      "Ġunpack": 3489,
      "Ġjolly": 3490,
      "ĠKim": 3491,
      "Ġcompass": 3492,
      "Ġcreatures": 3493,
      "Ġcourage": 3494,
      "Ġtroubled": 3495,
      "Ġadmire": 3496,
      "Ġpassport": 3497,
      "Ġfragile": 3498,
      "gn": 3499,
      "Ġsend": 3500,
      "ince": 3501,
      "Ġhippo": 3502,
      "rell": 3503,
      "ĠTr": 3504,
      "Ġmask": 3505,
      "Ġyaw": 3506,
      "Ġsofa": 3507,
      "Ġliz": 3508,
      "Ġchasing": 3509,
      "Ġhose": 3510,
      "Ġlearnt": 3511,
      "Ġhanded": 3512,
      "Ġcryst": 3513,
      "Ġtrash": 3514,
      "Ġrubb": 3515,
      "Ġsticker": 3516,
      "Ġcreate": 3517,
      "Ġwindows": 3518,
      "Ġpoint": 3519,
      "Ġsecond": 3520,
      "Ġmissing": 3521,
      "Ġburn": 3522,
      "Ġparade": 3523,
      "Ġshells": 3524,
      "Ġhelmet": 3525,
      "Ġindependent": 3526,
      "Ġviolin": 3527,
      "Ġimpatient": 3528,
      "cast": 3529,
      "par": 3530,
      "ubby": 3531,
      "Ġshine": 3532,
      "Ġreco": 3533,
      "aled": 3534,
      "Ġsepar": 3535,
      "Ġchubby": 3536,
      "Ġolder": 3537,
      "Ġanywhere": 3538,
      "Ġglove": 3539,
      "Ġarg": 3540,
      "Ġstops": 3541,
      "Ġhairy": 3542,
      "Ġattract": 3543,
      "Ġharsh": 3544,
      "Ġreturn": 3545,
      "Ġfingers": 3546,
      "Ġspoiled": 3547,
      "Ġhammer": 3548,
      "Ġvolcano": 3549,
      "gie": 3550,
      "ision": 3551,
      "Ġumb": 3552,
      "Ġsoar": 3553,
      "ĠBaby": 3554,
      "Ġshort": 3555,
      "Ġnotice": 3556,
      "illa": 3557,
      "Ġstarts": 3558,
      "Ġfactor": 3559,
      "ucked": 3560,
      "uct": 3561,
      "sely": 3562,
      "Ġnicely": 3563,
      "Ġcheap": 3564,
      "Ġsuper": 3565,
      "Ġjokes": 3566,
      "ĠNext": 3567,
      "Ġsteal": 3568,
      "Ġmixer": 3569,
      "Ġpotato": 3570,
      "Ġpoured": 3571,
      "Ġcompetitive": 3572,
      "Ġpigeon": 3573,
      "Ġdestroy": 3574,
      "Ġumbrell": 3575,
      "Ġfactory": 3576,
      "noon": 3577,
      "Ġtem": 3578,
      "Ġsize": 3579,
      "Ġcards": 3580,
      "Ġmama": 3581,
      "Ġpump": 3582,
      "Ġnature": 3583,
      "Ġitself": 3584,
      "ckey": 3585,
      "Ġstat": 3586,
      "stairs": 3587,
      "Ġshaking": 3588,
      "ĠAre": 3589,
      "ecause": 3590,
      "iches": 3591,
      "Ġhockey": 3592,
      "Ġpeek": 3593,
      "Ġcush": 3594,
      "Ġafternoon": 3595,
      "Ġstickers": 3596,
      "Ġsweetheart": 3597,
      "Ġsandcast": 3598,
      "Ġrolling": 3599,
      "Ġcrawl": 3600,
      "Ġorganize": 3601,
      "ĠBuddy": 3602,
      "Ġriding": 3603,
      "Ġsilver": 3604,
      "Ġpushing": 3605,
      "ĠUn": 3606,
      "cu": 3607,
      "med": 3608,
      "Ġfurt": 3609,
      "Ġpit": 3610,
      "Ġpurse": 3611,
      "Ġhadn": 3612,
      "Ġrepe": 3613,
      "alk": 3614,
      "ĠJames": 3615,
      "tern": 3616,
      "Ġscatter": 3617,
      "Ġagree": 3618,
      "Ġclosely": 3619,
      "ĠâĢĵ": 3620,
      "Ġtowers": 3621,
      "Ġbrighter": 3622,
      "Ġmagn": 3623,
      "Ġbrothers": 3624,
      "Ġdriving": 3625,
      "ipping": 3626,
      "Ġshrimp": 3627,
      "Ġcardboard": 3628,
      "Ġordinary": 3629,
      "Ġleopard": 3630,
      "Ġcompassion": 3631,
      "Ġlizard": 3632,
      "Ġrecogn": 3633,
      "Ow": 3634,
      "iest": 3635,
      "yer": 3636,
      "Ġtoil": 3637,
      "Ġcelery": 3638,
      "Ġhedge": 3639,
      "Ġnail": 3640,
      "Ġreve": 3641,
      "Ġknob": 3642,
      "Ġknock": 3643,
      "Ġscrew": 3644,
      "Ġmeas": 3645,
      "Ġstarting": 3646,
      "play": 3647,
      "Ġflour": 3648,
      "Ġvend": 3649,
      "ĠEverything": 3650,
      "Ġimpro": 3651,
      "Ġnowhere": 3652,
      "ĠRache": 3653,
      "Ġbehave": 3654,
      "Ġtrick": 3655,
      "Ġvisited": 3656,
      "Ġcolours": 3657,
      "Ġenth": 3658,
      "Ġsandwiches": 3659,
      "Ġimpress": 3660,
      "ĠSte": 3661,
      "Ġseeds": 3662,
      "Ġstatue": 3663,
      "Ġtoilet": 3664,
      "ĠRachel": 3665,
      "corn": 3666,
      "ye": 3667,
      "Ġsummer": 3668,
      "Ġfat": 3669,
      "isk": 3670,
      "ĠSh": 3671,
      "ans": 3672,
      "Ġrug": 3673,
      "ĠMillie": 3674,
      "chie": 3675,
      "Ġjet": 3676,
      "Ġspell": 3677,
      "Ġart": 3678,
      "Ġbadly": 3679,
      "Ġclimbing": 3680,
      "Ġdishes": 3681,
      "Ġdisplay": 3682,
      "Ġdrawer": 3683,
      "Ġshoe": 3684,
      "Ġlawyer": 3685,
      "Ġpopcorn": 3686,
      "ĠElla": 3687,
      "Ġfearful": 3688,
      "Ġsnuggled": 3689,
      "Ġfurther": 3690,
      "Ġenthus": 3691,
      "Ġcomet": 3692,
      "Ġdive": 3693,
      "Ġsauce": 3694,
      "uth": 3695,
      "Ġstack": 3696,
      "una": 3697,
      "Ġallowed": 3698,
      "Ġvide": 3699,
      "Ġgloomy": 3700,
      "Ġdisag": 3701,
      "Ġpainter": 3702,
      "Ġlistening": 3703,
      "Ġsquash": 3704,
      "Ġboats": 3705,
      "cod": 3706,
      "Ġpretending": 3707,
      "Ġcupboard": 3708,
      "Ġmailbox": 3709,
      "Ġpracticed": 3710,
      "ĠBefore": 3711,
      "Ġspinning": 3712,
      "Ġsteps": 3713,
      "Ġhumble": 3714,
      "Ġwishes": 3715,
      "Ġfrowned": 3716,
      "Ġoyster": 3717,
      "Ġattractive": 3718,
      "ci": 3719,
      "ser": 3720,
      "Ġcree": 3721,
      "Ġmild": 3722,
      "Ġnurse": 3723,
      "amond": 3724,
      "ric": 3725,
      "Ġnote": 3726,
      "Ġjug": 3727,
      "ills": 3728,
      "Ġtruth": 3729,
      "Ġener": 3730,
      "Ġneedle": 3731,
      "Ġraft": 3732,
      "Ġpattern": 3733,
      "osie": 3734,
      "Ġlemonade": 3735,
      "Ġdiamond": 3736,
      "Ġavo": 3737,
      "Ġphoto": 3738,
      "Ġengine": 3739,
      "Ġvendor": 3740,
      "bel": 3741,
      "Ġten": 3742,
      "Ġdug": 3743,
      "Ġmill": 3744,
      "Ġsaus": 3745,
      "Ġshark": 3746,
      "ĠWhere": 3747,
      "Ġsunset": 3748,
      "Ġcats": 3749,
      "Ġappre": 3750,
      "Ġtravel": 3751,
      "Ġbarn": 3752,
      "Ġtreasures": 3753,
      "Ġcollar": 3754,
      "Ġexper": 3755,
      "Ġgiggle": 3756,
      "Ġincl": 3757,
      "Ġstretched": 3758,
      "Ġrescue": 3759,
      "Ġlibrary": 3760,
      "Ġcrocod": 3761,
      "Ġumbrella": 3762,
      "Re": 3763,
      "inking": 3764,
      "inarian": 3765,
      "Ġcere": 3766,
      "Ġdess": 3767,
      "erc": 3768,
      "Ġweather": 3769,
      "une": 3770,
      "ĠMilly": 3771,
      "Ġreward": 3772,
      "Ġboots": 3773,
      "Ġcap": 3774,
      "Ġsne": 3775,
      "ĠGive": 3776,
      "ĠRosie": 3777,
      "Ġgiven": 3778,
      "Ġmarched": 3779,
      "eterinarian": 3780,
      "Ġjeep": 3781,
      "Ġbaseball": 3782,
      "Ġimpressive": 3783,
      "Ġappreci": 3784,
      "gs": 3785,
      "loe": 3786,
      "ron": 3787,
      "was": 3788,
      "Ġlid": 3789,
      "Ġlend": 3790,
      "Ġluck": 3791,
      "Ġcur": 3792,
      "Ġpair": 3793,
      "ĠHere": 3794,
      "indy": 3795,
      "icop": 3796,
      "Ġscoot": 3797,
      "Ġveterinarian": 3798,
      "Ġbrace": 3799,
      "Ġsub": 3800,
      "Ġfirework": 3801,
      "Ġzeb": 3802,
      "Ġdrawings": 3803,
      "Ġpapers": 3804,
      "Ġcrazy": 3805,
      "Ġspring": 3806,
      "Ġbounced": 3807,
      "ĠChloe": 3808,
      "Ġletters": 3809,
      "Ġpopular": 3810,
      "Ġhelicop": 3811,
      "arlie": 3812,
      "Ġdishwas": 3813,
      "ĠDanny": 3814,
      "Ġhunter": 3815,
      "ĠSteve": 3816,
      "Ġcrocodile": 3817,
      "Ġdessert": 3818,
      "Ġzebra": 3819,
      "Ġhelicopter": 3820,
      "Ġdishwasher": 3821,
      "Go": 3822,
      "If": 3823,
      "Ġtut": 3824,
      "Ġhoop": 3825,
      "Ġpad": 3826,
      "iling": 3827,
      "ĠSee": 3828,
      "Ġbeep": 3829,
      "unately": 3830,
      "Ġkay": 3831,
      "Ġneat": 3832,
      "Ġgoal": 3833,
      "Ġclapping": 3834,
      "Ġrose": 3835,
      "Ġsomewhere": 3836,
      "Ġvine": 3837,
      "Ġdeaf": 3838,
      "Ġlightning": 3839,
      "Ġswinging": 3840,
      "Ġobser": 3841,
      "ailable": 3842,
      "ĠCharlie": 3843,
      "Ġwheat": 3844,
      "ĠEllie": 3845,
      "Ġchickens": 3846,
      "Ġcabinet": 3847,
      "Ġpenguin": 3848,
      "Ġcostum": 3849,
      "Ġcreek": 3850,
      "Give": 3851,
      "scope": 3852,
      "under": 3853,
      "inked": 3854,
      "Ġmen": 3855,
      "any": 3856,
      "orable": 3857,
      "orilla": 3858,
      "kelet": 3859,
      "Ġplayer": 3860,
      "Ġexerc": 3861,
      "Ġnames": 3862,
      "Ġbackpack": 3863,
      "Ġscold": 3864,
      "Ġswe": 3865,
      "roscope": 3866,
      "Ġpoem": 3867,
      "Ġgrin": 3868,
      "Ġraining": 3869,
      "Ġforgave": 3870,
      "Ġsplit": 3871,
      "Ġeagerly": 3872,
      "Ġwheels": 3873,
      "Ġresist": 3874,
      "Ġbalanc": 3875,
      "Ġmicroscope": 3876,
      "Ġfilthy": 3877,
      "cycle": 3878,
      "Ġavailable": 3879,
      "Ġaccepted": 3880,
      "eath": 3881,
      "Ġcrystal": 3882,
      "bor": 3883,
      "lb": 3884,
      "night": 3885,
      "ray": 3886,
      "Ġwing": 3887,
      "Ġbikes": 3888,
      "Ġhut": 3889,
      "ito": 3890,
      "Ġpage": 3891,
      "Ġpipe": 3892,
      "Ġoak": 3893,
      "Ġhalf": 3894,
      "Ġthunder": 3895,
      "ĠLilly": 3896,
      "Ġstage": 3897,
      "ĠMag": 3898,
      "Ġhappier": 3899,
      "Ġisn": 3900,
      "Ġmule": 3901,
      "Ġputting": 3902,
      "ĠJosh": 3903,
      "Ġbulb": 3904,
      "Ġanyway": 3905,
      "inky": 3906,
      "Ġadorable": 3907,
      "ected": 3908,
      "Ġblueberry": 3909,
      "Ġrestless": 3910,
      "astic": 3911,
      "Ġholds": 3912,
      "angle": 3913,
      "Ġslides": 3914,
      "Ġmotorcycle": 3915,
      "Ġfishing": 3916,
      "Ġcereal": 3917,
      "Ġtutor": 3918,
      "Because": 3919,
      "lid": 3920,
      "Ġachie": 3921,
      "Ġtor": 3922,
      "Ġfle": 3923,
      "Ġdough": 3924,
      "Ġoats": 3925,
      "Ġgorilla": 3926,
      "ĠSad": 3927,
      "Ġsoil": 3928,
      "ado": 3929,
      "Ġshade": 3930,
      "ĠAb": 3931,
      "icle": 3932,
      "Ġblinked": 3933,
      "mand": 3934,
      "Ġoffer": 3935,
      "ĠCat": 3936,
      "Ġshouldn": 3937,
      "Ġhoping": 3938,
      "Ġlions": 3939,
      "Ġdancer": 3940,
      "Ġcountry": 3941,
      "Ġthrowing": 3942,
      "Ġrespectful": 3943,
      "Ġexamine": 3944,
      "ĠClara": 3945,
      "ĠBrownie": 3946,
      "Ġsoldier": 3947,
      "Ġprepare": 3948,
      "Ġrepair": 3949,
      "He": 3950,
      "gen": 3951,
      "lass": 3952,
      "nit": 3953,
      "te": 3954,
      "zor": 3955,
      "Ġsent": 3956,
      "Ġskelet": 3957,
      "ites": 3958,
      "Ġcurt": 3959,
      "Ġpor": 3960,
      "Ġpalm": 3961,
      "ooped": 3962,
      "Ġstadi": 3963,
      "Ġshel": 3964,
      "addy": 3965,
      "ĠBill": 3966,
      "Ġeither": 3967,
      "Ġseas": 3968,
      "Ġhelpless": 3969,
      "asc": 3970,
      "Ġholid": 3971,
      "Ġtwist": 3972,
      "Ġquar": 3973,
      "Ġevening": 3974,
      "Ġrazor": 3975,
      "Ġchess": 3976,
      "Ġsuff": 3977,
      "ips": 3978,
      "Ġteleph": 3979,
      "Ġshouts": 3980,
      "Ġtrap": 3981,
      "Ġfurnit": 3982,
      "Ġbouncing": 3983,
      "Ġharbor": 3984,
      "Ġberry": 3985,
      "Ġleaned": 3986,
      "Ġsubway": 3987,
      "Ġcurtain": 3988,
      "Ġstadium": 3989,
      "Ġholiday": 3990,
      "Ġtelephone": 3991,
      "Ġfurniture": 3992,
      "ef": 3993,
      "Ġsym": 3994,
      "Ġpun": 3995,
      "arm": 3996,
      "enry": 3997,
      "anic": 3998,
      "Ġrad": 3999,
      "ĠBear": 4000,
      "ices": 4001,
      "Ġknown": 4002,
      "reeze": 4003,
      "Ġchance": 4004,
      "Ġholes": 4005,
      "Ġsung": 4006,
      "Ġexplain": 4007,
      "Ġended": 4008,
      "ngth": 4009,
      "Ġopens": 4010,
      "Ġairport": 4011,
      "Ġveh": 4012,
      "Ġgifted": 4013,
      "Ġjourn": 4014,
      "Ġstrength": 4015,
      "Ġtuna": 4016,
      "Ġminute": 4017,
      "Ġcelebrated": 4018,
      "Ġvalue": 4019,
      "Ġmedal": 4020,
      "Ġstirred": 4021,
      "ĠFreddy": 4022,
      "Ġcomplete": 4023,
      "Ġcompassionate": 4024,
      "dom": 4025,
      "ges": 4026,
      "Ġpaid": 4027,
      "ora": 4028,
      "ĠHenry": 4029,
      "stic": 4030,
      "chanic": 4031,
      "Ġknot": 4032,
      "Ġmechanic": 4033,
      "Ġbrus": 4034,
      "place": 4035,
      "ssible": 4036,
      "Ġswamp": 4037,
      "Ġvest": 4038,
      "Ġclock": 4039,
      "Ġorder": 4040,
      "Ġshoulder": 4041,
      "Ġtrail": 4042,
      "Ġsoftly": 4043,
      "Ġprov": 4044,
      "ĠFrank": 4045,
      "Ġpowder": 4046,
      "lasses": 4047,
      "Ġsunglasses": 4048,
      "ccol": 4049,
      "ffe": 4050,
      "ibb": 4051,
      "nam": 4052,
      "ween": 4053,
      "Ġwife": 4054,
      "Ġfasc": 4055,
      "Ġwaste": 4056,
      "Ġpra": 4057,
      "Ġpine": 4058,
      "ceed": 4059,
      "Ġonion": 4060,
      "Ġreef": 4061,
      "Ġgolf": 4062,
      "Ġjail": 4063,
      "bbie": 4064,
      "iastic": 4065,
      "ĠCindy": 4066,
      "Ġappro": 4067,
      "Ġshouting": 4068,
      "ĠInst": 4069,
      "Ġpulls": 4070,
      "bol": 4071,
      "Ġthanks": 4072,
      "Ġfields": 4073,
      "Ġceiling": 4074,
      "Ġants": 4075,
      "Ġbarks": 4076,
      "Ġclassroom": 4077,
      "Ġbetween": 4078,
      "Ġcushion": 4079,
      "Ġenthusiastic": 4080,
      "Ġskeleton": 4081,
      "Ġquarrel": 4082,
      "Ġjournal": 4083,
      "ccoli": 4084,
      "ffee": 4085,
      "nament": 4086,
      "'.": 4087,
      "aff": 4088,
      "low": 4089,
      "Ġsink": 4090,
      "Ġbri": 4091,
      "ense": 4092,
      "Ġnation": 4093,
      "Ġyach": 4094,
      "igail": 4095,
      "ĠIs": 4096,
      "chair": 4097,
      "Ġrequ": 4098,
      "icer": 4099,
      "Ġalarm": 4100,
      "Ġseeing": 4101,
      "ĠFro": 4102,
      "Ġcoffee": 4103,
      "Ġdoggy": 4104,
      "Ġchecked": 4105,
      "aches": 4106,
      "Ġfireman": 4107,
      "Ġtriangle": 4108,
      "Ġarmchair": 4109,
      "Ġcounter": 4110,
      "Ġveil": 4111,
      "Ġadmir": 4112,
      "Ġsurround": 4113,
      "Ġshrugged": 4114,
      "Ġmistakes": 4115,
      "Ġbandage": 4116,
      "Ġlively": 4117,
      "Ġglowing": 4118,
      "Ġstuffed": 4119,
      "ĠPaul": 4120,
      "Ġenergy": 4121,
      "Ġscooter": 4122,
      "Ġbracelet": 4123,
      "Ġkayak": 4124,
      "Ġsymbol": 4125,
      "Ġyacht": 4126,
      "Is": 4127,
      "Ġtucked": 4128,
      "Ġtooth": 4129,
      "Ġfive": 4130,
      "Ġmel": 4131,
      "Ġgro": 4132,
      "Ġgear": 4133,
      "Ġhall": 4134,
      "Ġrot": 4135,
      "Ġrise": 4136,
      "Ġweep": 4137,
      "Ġnoteb": 4138,
      "Ġskipping": 4139,
      "Ġopera": 4140,
      "Ġwriting": 4141,
      "ĠNut": 4142,
      "Ġappl": 4143,
      "Ġfloating": 4144,
      "ulu": 4145,
      "Ġtripped": 4146,
      "ĠJenna": 4147,
      "Ġbreaks": 4148,
      "Ġattach": 4149,
      "Ġmystery": 4150,
      "Ġsalt": 4151,
      "Ġblowing": 4152,
      "Ġcherry": 4153,
      "Ġdrops": 4154,
      "Ġchirp": 4155,
      "Ġapologized": 4156,
      "Ġseparate": 4157,
      "Ġpumpkin": 4158,
      "ĠAbigail": 4159,
      "Ġnotebook": 4160,
      "An": 4161,
      "cut": 4162,
      "ring": 4163,
      "rise": 4164,
      "sit": 4165,
      "uch": 4166,
      "Ġsle": 4167,
      "edy": 4168,
      "Ġdear": 4169,
      "Ġdaisy": 4170,
      "Ġthread": 4171,
      "ĠLiz": 4172,
      "Ġsocks": 4173,
      "ĠBunny": 4174,
      "Ġweigh": 4175,
      "Ġrever": 4176,
      "ores": 4177,
      "urb": 4178,
      "Ġnovel": 4179,
      "Ġswitch": 4180,
      "Ġpoked": 4181,
      "Ġtrade": 4182,
      "Ġornament": 4183,
      "Ġjogged": 4184,
      "Thanks": 4185,
      "Ġbroccoli": 4186,
      "Ġcreated": 4187,
      "Ġsmells": 4188,
      "Ġpressed": 4189,
      "Ġpoints": 4190,
      "fortunately": 4191,
      "Ġcups": 4192,
      "Ġbeef": 4193,
      "Ġdisturb": 4194,
      "Ġbelongs": 4195,
      "Ġsucceed": 4196,
      "Ġimagine": 4197,
      "Ġsplashing": 4198,
      "Ġspeak": 4199,
      "Ġflutter": 4200,
      "happy": 4201,
      "Ġfascin": 4202,
      "ĠNutty": 4203,
      "'ve": 4204,
      "drobe": 4205,
      "lier": 4206,
      "Ġig": 4207,
      "Ġdust": 4208,
      "Ġpal": 4209,
      "ĠLulu": 4210,
      "Ġcaul": 4211,
      "Ġmeat": 4212,
      "Ġflame": 4213,
      "estig": 4214,
      "Ġswung": 4215,
      "Ġfeelings": 4216,
      "Ġslipp": 4217,
      "ĠPat": 4218,
      "Ġwardrobe": 4219,
      "Ġuniver": 4220,
      "Ġacorn": 4221,
      "Ġmessage": 4222,
      "Ġcomput": 4223,
      "Ġfalling": 4224,
      "Ġpresents": 4225,
      "Ġinvestig": 4226,
      "Ġearlier": 4227,
      "Ġimagination": 4228,
      "ĠBuzz": 4229,
      "Ġstraight": 4230,
      "Ġregret": 4231,
      "Ġwandered": 4232,
      "Timmy": 4233,
      "Ġyoga": 4234,
      "Ġmagnet": 4235,
      "Ġvideo": 4236,
      "Ġgrinned": 4237,
      "Ġvehicle": 4238,
      "Ġigloo": 4239,
      "Ġpalace": 4240,
      "Ġcaulif": 4241,
      "Ġslippery": 4242,
      "aked": 4243,
      "zie": 4244,
      "Ġfan": 4245,
      "Ġport": 4246,
      "arry": 4247,
      "Ġthumb": 4248,
      "Ġinf": 4249,
      "ĠLuna": 4250,
      "Ġradi": 4251,
      "Ġspear": 4252,
      "urch": 4253,
      "Ġnobody": 4254,
      "quito": 4255,
      "Ġcham": 4256,
      "Ġpopped": 4257,
      "Ġtap": 4258,
      "Ġbuzz": 4259,
      "Ġpear": 4260,
      "Ġskull": 4261,
      "Ġskills": 4262,
      "Ġcube": 4263,
      "Ġunhappy": 4264,
      "Ġmagaz": 4265,
      "Ġfireplace": 4266,
      "Ġprevent": 4267,
      "Ġpolish": 4268,
      "Ġmonkeys": 4269,
      "Ġeasier": 4270,
      "Ġzoomed": 4271,
      "Ġcooked": 4272,
      "Ġlawn": 4273,
      "Ġpushes": 4274,
      "Ġmuffin": 4275,
      "Ġcomplain": 4276,
      "ĠMaggie": 4277,
      "Ġporch": 4278,
      "Ġradio": 4279,
      "Bye": 4280,
      "ait": 4281,
      "appy": 4282,
      "case": 4283,
      "ives": 4284,
      "momet": 4285,
      "rmomet": 4286,
      "Ġthermomet": 4287,
      "Ġbreeze": 4288,
      "Ġitch": 4289,
      "Ġfort": 4290,
      "Ġweap": 4291,
      "Ġlip": 4292,
      "Ġcane": 4293,
      "Ġcase": 4294,
      "Ġcob": 4295,
      "Ġvroom": 4296,
      "Ġpoison": 4297,
      "Ġsunrise": 4298,
      "Ġtray": 4299,
      "Ġfog": 4300,
      "Ġbears": 4301,
      "ement": 4302,
      "Ġraise": 4303,
      "Ġamazement": 4304,
      "Ġdemand": 4305,
      "Ġcrow": 4306,
      "Ġbelow": 4307,
      "Ġcooler": 4308,
      "Ġunderstanding": 4309,
      "Ġperfectly": 4310,
      "Ġpetals": 4311,
      "Ġpiano": 4312,
      "Ġpastry": 4313,
      "Ġapron": 4314,
      "ĠHowever": 4315,
      "Ġparrot": 4316,
      "Ġdecorations": 4317,
      "Ġhuman": 4318,
      "Ġurge": 4319,
      "iskers": 4320,
      "ĠInstead": 4321,
      "Ġmagazine": 4322,
      "Ġthermometer": 4323,
      "\",": 4324,
      "Max": 4325,
      "mend": 4326,
      "Ġbicy": 4327,
      "Ġwags": 4328,
      "Ġpand": 4329,
      "ommend": 4330,
      "anna": 4331,
      "ĠHelp": 4332,
      "Ġstro": 4333,
      "Ġplastic": 4334,
      "Ġelev": 4335,
      "ĠMay": 4336,
      "Ġlives": 4337,
      "Ġshakes": 4338,
      "htub": 4339,
      "raged": 4340,
      "ĠJess": 4341,
      "fume": 4342,
      "Ġfauc": 4343,
      "Ġflapped": 4344,
      "Ġgrapes": 4345,
      "Ġquit": 4346,
      "Ġsuitc": 4347,
      "ĠRu": 4348,
      "Ġheaded": 4349,
      "Ġfollowing": 4350,
      "Ġperfume": 4351,
      "Ġsandbox": 4352,
      "Ġtricks": 4353,
      "Ġbathtub": 4354,
      "Ġhaircut": 4355,
      "Ġmarry": 4356,
      "elcome": 4357,
      "Ġattention": 4358,
      "Ġwelcomed": 4359,
      "ĠWhiskers": 4360,
      "Ġwhistling": 4361,
      "Ġenter": 4362,
      "Ġsolved": 4363,
      "Ġrecommend": 4364,
      "Ġsupply": 4365,
      "Ġsupport": 4366,
      "Ġwhisper": 4367,
      "Ġstrawberries": 4368,
      "Ġsandcastle": 4369,
      "Ġimprove": 4370,
      "Ġflea": 4371,
      "Ġinvestigate": 4372,
      "Ġcauliflower": 4373,
      "Ġelevator": 4374,
      "Ġfaucet": 4375,
      "cc": 4376,
      "ging": 4377,
      "ib": 4378,
      "squito": 4379,
      "Ġsaving": 4380,
      "Ġink": 4381,
      "Ġbeamed": 4382,
      "ĠOl": 4383,
      "sters": 4384,
      "Ġhappens": 4385,
      "hero": 4386,
      "alley": 4387,
      "Ġseal": 4388,
      "asis": 4389,
      "ĠElly": 4390,
      "rod": 4391,
      "Ġintrod": 4392,
      "Ġmosquito": 4393,
      "aud": 4394,
      "Ġcheek": 4395,
      "Ġdressed": 4396,
      "Ġsquirrels": 4397,
      "Ġsparkling": 4398,
      "bbles": 4399,
      "Ġpasta": 4400,
      "Ġpuddles": 4401,
      "Ġeagle": 4402,
      "Ġburning": 4403,
      "Ġapart": 4404,
      "Ġbarking": 4405,
      "Ġhanging": 4406,
      "Ġgolden": 4407,
      "Ġcherries": 4408,
      "Ġsettle": 4409,
      "Ġsuperhero": 4410,
      "Ġexercise": 4411,
      "Ġtorn": 4412,
      "Would": 4413,
      "nger": 4414,
      "sing": 4415,
      "vet": 4416,
      "Ġsince": 4417,
      "Ġwashing": 4418,
      "Ġoasis": 4419,
      "Ġribb": 4420,
      "Ġlick": 4421,
      "herman": 4422,
      "Your": 4423,
      "Ġfinds": 4424,
      "Ġbury": 4425,
      "ction": 4426,
      "Ġrabbits": 4427,
      "aces": 4428,
      "Ġwarmth": 4429,
      "Ġfiref": 4430,
      "Ġforgotten": 4431,
      "Ġmarried": 4432,
      "anges": 4433,
      "Ġwinter": 4434,
      "Ġgrabs": 4435,
      "Ġpinch": 4436,
      "Ġscratch": 4437,
      "ĠBetty": 4438,
      "Ġpeanuts": 4439,
      "Ġfisherman": 4440,
      "Ġstrawberry": 4441,
      "Ġrelaxed": 4442,
      "Ġinsisted": 4443,
      "Ġrefre": 4444,
      "Ġrubber": 4445,
      "ĠUnfortunately": 4446,
      "Ġscolded": 4447,
      "Ġapplaud": 4448,
      "Ġslept": 4449,
      "Ġchamber": 4450,
      "Sam": 4451,
      "ler": 4452,
      "mm": 4453,
      "ues": 4454,
      "web": 4455,
      "ero": 4456,
      "Ġpau": 4457,
      "Ġbegged": 4458,
      "Ġrag": 4459,
      "hter": 4460,
      "Ġcapt": 4461,
      "Ġrod": 4462,
      "Ġworth": 4463,
      "Ġchurch": 4464,
      "ĠJoy": 4465,
      "Ġlaughter": 4466,
      "Ġtwink": 4467,
      "Ġquiz": 4468,
      "Ġstruc": 4469,
      "emember": 4470,
      "Ġsneeze": 4471,
      "Ġjumps": 4472,
      "Ġbookcase": 4473,
      "Ġdoors": 4474,
      "ĠRob": 4475,
      "Ġsqueeze": 4476,
      "Ġfloated": 4477,
      "spap": 4478,
      "Ġgrowled": 4479,
      "Ġfallen": 4480,
      "Ġdisappear": 4481,
      "Ġstud": 4482,
      "Ġquietly": 4483,
      "Ġfreez": 4484,
      "Ġinstr": 4485,
      "Ġmeeting": 4486,
      "Ġserve": 4487,
      "Ġcrossed": 4488,
      "Ġshooting": 4489,
      "Ġavoc": 4490,
      "Ġinclud": 4491,
      "Ġsneak": 4492,
      "Ġsweater": 4493,
      "Ġpraised": 4494,
      "Ġapproached": 4495,
      "Ġcobweb": 4496,
      "Ġstructure": 4497,
      "right": 4498,
      "tress": 4499,
      "Ġsimp": 4500,
      "Ġfought": 4501,
      "ĠTina": 4502,
      "Ġlime": 4503,
      "!\",": 4504,
      "Ġclaw": 4505,
      "ĠFirst": 4506,
      "Ġnewspap": 4507,
      "Ġmyself": 4508,
      "ionary": 4509,
      "Ġsurprises": 4510,
      "Ġdiscu": 4511,
      "Ġgreedy": 4512,
      "Ġdifferen": 4513,
      "ĠKing": 4514,
      "Ġfrogs": 4515,
      "Ġbathe": 4516,
      "Ġcrash": 4517,
      "Ġmattress": 4518,
      "Ġblackboard": 4519,
      "Ġlands": 4520,
      "Ġnapkin": 4521,
      "Ġchairs": 4522,
      "Ġshrink": 4523,
      "Ġignored": 4524,
      "Ġpaws": 4525,
      "Ġsprayed": 4526,
      "Ġbananas": 4527,
      "Ġstruggling": 4528,
      "looking": 4529,
      "ictionary": 4530,
      "Ġweapon": 4531,
      "Ġbicycle": 4532,
      "eed": 4533,
      "Ġcre": 4534,
      "Ġdictionary": 4535,
      "omes": 4536,
      "ising": 4537,
      "Ġgir": 4538,
      "Ġyield": 4539,
      "Ġvalley": 4540,
      "Ġpoke": 4541,
      "ĠCar": 4542,
      "Ġkindly": 4543,
      "Ġglo": 4544,
      "Ġbravely": 4545,
      "Ġwarning": 4546,
      "Ġblueberries": 4547,
      "ission": 4548,
      "Ġdiary": 4549,
      "Ġmarbles": 4550,
      "Ġspending": 4551,
      "Ġneighbourhood": 4552,
      "Ġtomatoes": 4553,
      "Ġencouraged": 4554,
      "Ġpermission": 4555,
      "Ġsniffed": 4556,
      "Ġdestroyed": 4557,
      "Ġadmiring": 4558,
      "Ġcomputer": 4559,
      "Jo": 4560,
      "mother": 4561,
      "zag": 4562,
      "ĠV": 4563,
      "Ġsir": 4564,
      "Ġble": 4565,
      "Ġhesit": 4566,
      "Ġpur": 4567,
      "Ġpages": 4568,
      "igzag": 4569,
      "Ġbeg": 4570,
      "Ġplates": 4571,
      "Ġshamp": 4572,
      "Ġhelper": 4573,
      "Ġscur": 4574,
      "Ġalive": 4575,
      "Ġmanage": 4576,
      "Ġcopper": 4577,
      "Ġchores": 4578,
      "Ġskirt": 4579,
      "Ġquack": 4580,
      "Ġrooms": 4581,
      "izes": 4582,
      "Ġconf": 4583,
      "ĠKat": 4584,
      "Ġhills": 4585,
      "Ġwallet": 4586,
      "Ġsigns": 4587,
      "Ġchoice": 4588,
      "Ġburned": 4589,
      "Ġwipe": 4590,
      "Ġcartoon": 4591,
      "Ġchirped": 4592,
      "Ġpedal": 4593,
      "Ġolive": 4594,
      "Ġappreciate": 4595,
      "Ġshelter": 4596,
      "Ġmelon": 4597,
      "Anna": 4598,
      "Ġfascinated": 4599,
      "Ġinfant": 4600,
      "Ġpaused": 4601,
      "Ġshampoo": 4602,
      "Ouch": 4603,
      "bul": 4604,
      "Ġtug": 4605,
      "Ġwool": 4606,
      "Ġwigg": 4607,
      "Ġost": 4608,
      "Ġgust": 4609,
      "Ġcliff": 4610,
      "Ġleak": 4611,
      "ases": 4612,
      "Ġblouse": 4613,
      "ĠJacky": 4614,
      "Ġshower": 4615,
      "Ġsort": 4616,
      "Ġremained": 4617,
      "Ġunite": 4618,
      "Ġtrave": 4619,
      "Ġhopes": 4620,
      "Ġladyb": 4621,
      "Ġfloat": 4622,
      "ĠKay": 4623,
      "Ġshovel": 4624,
      "Ġhotel": 4625,
      "Ġbarrel": 4626,
      "Ġthrows": 4627,
      "Ġspoons": 4628,
      "Ġpatiently": 4629,
      "Ġincre": 4630,
      "Ġentered": 4631,
      "Ġcollecting": 4632,
      "ĠBubbles": 4633,
      "ĠBetsy": 4634,
      "Ġdestination": 4635,
      "Ġawe": 4636,
      "Ġreceive": 4637,
      "Ġyawned": 4638,
      "Ġrevealed": 4639,
      "Ġexperience": 4640,
      "Ġcostume": 4641,
      "Ġclaws": 4642,
      "Ġgloves": 4643,
      "Ġostri": 4644,
      "azz": 4645,
      "bers": 4646,
      "ccer": 4647,
      "iately": 4648,
      "lvet": 4649,
      "Ġtoes": 4650,
      "Ġtong": 4651,
      "Ġwaving": 4652,
      "Ġmention": 4653,
      "atched": 4654,
      "ories": 4655,
      "ĠHoppy": 4656,
      "irp": 4657,
      "Ġstom": 4658,
      "Ġsoccer": 4659,
      "ĠBy": 4660,
      "Ġeff": 4661,
      "ĠMe": 4662,
      "Ġsport": 4663,
      "Ġallig": 4664,
      "ĠFo": 4665,
      "Ġnews": 4666,
      "Ġpride": 4667,
      "ĠSuzie": 4668,
      "Ġflies": 4669,
      "Ġvet": 4670,
      "Ġpeach": 4671,
      "ĠEveryday": 4672,
      "Ġgrill": 4673,
      "Ġjogging": 4674,
      "Ġfollows": 4675,
      "Ġsetting": 4676,
      "Ġpress": 4677,
      "Ġdeeper": 4678,
      "Ġcompany": 4679,
      "Ġvelvet": 4680,
      "Ġcrawling": 4681,
      "Ġtrusted": 4682,
      "mediately": 4683,
      "Ġsausage": 4684,
      "Ġobserve": 4685,
      "Ġchirping": 4686,
      "Ġcaptain": 4687,
      "Ġostrich": 4688,
      "Did": 4689,
      "Sara": 4690,
      "act": 4691,
      "house": 4692,
      "mare": 4693,
      "nie": 4694,
      "Ġtide": 4695,
      "Ġsings": 4696,
      "Ġtore": 4697,
      "Ġlumber": 4698,
      "Ġcared": 4699,
      "Ġchat": 4700,
      "Ġdried": 4701,
      "imi": 4702,
      "llie": 4703,
      "ĠLuck": 4704,
      "Ġstaff": 4705,
      "ppers": 4706,
      "aded": 4707,
      "Ġplays": 4708,
      "ĠMimi": 4709,
      "Ġlie": 4710,
      "icing": 4711,
      "ĠEach": 4712,
      "antly": 4713,
      "Ġkneel": 4714,
      "Ġoranges": 4715,
      "Ġdelay": 4716,
      "Ġsqueezed": 4717,
      "Ġtaller": 4718,
      "Ġcastles": 4719,
      "Ġpaints": 4720,
      "Ġsparkles": 4721,
      "Ġplanes": 4722,
      "These": 4723,
      "Ġattached": 4724,
      "Ġplanted": 4725,
      "Ġblankets": 4726,
      "Ġelephants": 4727,
      "Ġbringing": 4728,
      "ĠWho": 4729,
      "Ġeasily": 4730,
      "Ġcollected": 4731,
      "Ġcows": 4732,
      "Ġkisses": 4733,
      "Ġweeks": 4734,
      "ĠJulia": 4735,
      "Ġbumped": 4736,
      "Ġmeasuring": 4737,
      "Ġdisagreed": 4738,
      "Ġradish": 4739,
      "Ġrequest": 4740,
      "Ġsurrounded": 4741,
      "Ġsuitcase": 4742,
      "Ġeffort": 4743,
      "Ġalligator": 4744,
      "Ġtu": 4745,
      "Ġwaff": 4746,
      "Ġfut": 4747,
      "Ġlaser": 4748,
      "Ġmass": 4749,
      "Ġnavy": 4750,
      "Ġitem": 4751,
      "Ġonwards": 4752,
      "Ġcoal": 4753,
      "Ġlab": 4754,
      "Ġprop": 4755,
      "Ġdownstairs": 4756,
      "Ġburied": 4757,
      "Ġslip": 4758,
      "Ġideas": 4759,
      "Ġunif": 4760,
      "Ġuncle": 4761,
      "Ġdresses": 4762,
      "Ġpulling": 4763,
      "Ġmoments": 4764,
      "ĠFloppy": 4765,
      "Ġsailing": 4766,
      "Ġjudge": 4767,
      "Ġhearts": 4768,
      "Ġneighbors": 4769,
      "Ġvillag": 4770,
      "Ġpuzzles": 4771,
      "Ġpillows": 4772,
      "ĠBeth": 4773,
      "ĠPeople": 4774,
      "Ġmemories": 4775,
      "Ġunlock": 4776,
      "ĠFroggy": 4777,
      "annah": 4778,
      "Ġavocado": 4779,
      "Ġnewspaper": 4780,
      "Ġdifference": 4781,
      "ĠLuckily": 4782,
      "Ġfuture": 4783,
      "Wait": 4784,
      "nies": 4785,
      "Ġhomes": 4786,
      "oming": 4787,
      "ĠHave": 4788,
      "ĠHannah": 4789,
      "Ġbeans": 4790,
      "Ġrow": 4791,
      "Ġweight": 4792,
      "Ġweighed": 4793,
      "Ġemer": 4794,
      "ĠMaddy": 4795,
      "seek": 4796,
      "ĠIts": 4797,
      "Ġclub": 4798,
      "Ġscooped": 4799,
      "ĠGr": 4800,
      "Ġwrites": 4801,
      "Ġappear": 4802,
      "Ġnightmare": 4803,
      "Ġrestore": 4804,
      "Ġbaking": 4805,
      "Ġcandles": 4806,
      "Ġgifts": 4807,
      "Ġpastel": 4808,
      "Ġchewed": 4809,
      "Ġpirates": 4810,
      "Ġringing": 4811,
      "Ġsnapped": 4812,
      "Ġtwigs": 4813,
      "Ġsettled": 4814,
      "Ġagreement": 4815,
      "Ġbalancing": 4816,
      "Ġsuffer": 4817,
      "Ġtube": 4818,
      "Ġuniform": 4819,
      "Ġvillagers": 4820,
      "Will": 4821,
      "ived": 4822,
      "ple": 4823,
      "Ġsizes": 4824,
      "Ġfest": 4825,
      "ĠTiny": 4826,
      "Ġdire": 4827,
      "Ġmop": 4828,
      "Ġmittens": 4829,
      "Ġnone": 4830,
      "oral": 4831,
      "ĠLee": 4832,
      "Ġsoared": 4833,
      "Ġequ": 4834,
      "ĠMoral": 4835,
      "Ġspade": 4836,
      "Ġprune": 4837,
      "Ġdecision": 4838,
      "Ġpoppy": 4839,
      "Ġtwisted": 4840,
      "Ġmoves": 4841,
      "embers": 4842,
      "Ġsneezed": 4843,
      "Ġremembers": 4844,
      "Ġkeeping": 4845,
      "Ġwarn": 4846,
      "Ġrested": 4847,
      "Ġcutting": 4848,
      "Ġparts": 4849,
      "Ġmatches": 4850,
      "Ġpastels": 4851,
      "ĠChirp": 4852,
      "Ġmissile": 4853,
      "Ġteaching": 4854,
      "Ġtasks": 4855,
      "Ġgrandmother": 4856,
      "...": 4857,
      "ĠJulie": 4858,
      "ĠTrue": 4859,
      "Ġreverse": 4860,
      "Ġpanda": 4861,
      "ĠKayla": 4862,
      "Ġmassage": 4863,
      "Ok": 4864,
      "Yuck": 4865,
      "ah": 4866,
      "ne": 4867,
      "ĠĠčĊ": 4868,
      "Ġsigh": 4869,
      "Ġwagging": 4870,
      "Ġlang": 4871,
      "Ġoat": 4872,
      "Ġshed": 4873,
      "ĠOr": 4874,
      "Ġlicks": 4875,
      "Ġreaches": 4876,
      "alph": 4877,
      "Ġanch": 4878,
      "Ġworse": 4879,
      "Ġcaring": 4880,
      "Ġvac": 4881,
      "Ġeaten": 4882,
      "Ġclearing": 4883,
      "Ġremain": 4884,
      "Ġletting": 4885,
      "Ġhurting": 4886,
      "Ġheads": 4887,
      "Ġsticky": 4888,
      "Ġsque": 4889,
      "Ġperched": 4890,
      "Ġmint": 4891,
      "Ġbreathe": 4892,
      "Ġsliding": 4893,
      "Ġselling": 4894,
      "Ġstrip": 4895,
      "omeday": 4896,
      "Ġyogurt": 4897,
      "Ġrefreshed": 4898,
      "Ġfestiv": 4899,
      "Ġlangu": 4900,
      "Or": 4901,
      "Qu": 4902,
      "Ġwine": 4903,
      "Ġbother": 4904,
      "Ġwaist": 4905,
      "Ġda": 4906,
      "Ġdare": 4907,
      "Ġdigg": 4908,
      "Ġobe": 4909,
      "lend": 4910,
      "ety": 4911,
      "eside": 4912,
      "amb": 4913,
      "Ġrake": 4914,
      "Ġrust": 4915,
      "ĠBig": 4916,
      "enty": 4917,
      "allow": 4918,
      "Ġjazz": 4919,
      "Ġalright": 4920,
      "Ġmakeup": 4921,
      "Ġsunlight": 4922,
      "âĢĿ.": 4923,
      "Ġimmediately": 4924,
      "Ġfastest": 4925,
      "Ġcrunch": 4926,
      "Ġambul": 4927,
      "Ġzigzag": 4928,
      "Ġairpl": 4929,
      "Ġsparkle": 4930,
      "Ġsprink": 4931,
      "ĠBuzzy": 4932,
      "Ġsafety": 4933,
      "ĠSomeone": 4934,
      "Ġargue": 4935,
      "Ġscattered": 4936,
      "Ġprovide": 4937,
      "Ġsimple": 4938,
      "Ġbegin": 4939,
      "Ġfestival": 4940,
      "Ġdigging": 4941,
      "Ġambulance": 4942,
      "Welcome": 4943,
      "cage": 4944,
      "osed": 4945,
      "shing": 4946,
      "ude": 4947,
      "Ġtub": 4948,
      "Ġwiz": 4949,
      "Ġhate": 4950,
      "Ġfile": 4951,
      "Ġlily": 4952,
      "Ġmug": 4953,
      "ĠSure": 4954,
      "enny": 4955,
      "Ġstable": 4956,
      "Ġhappiest": 4957,
      "Ġboot": 4958,
      "umble": 4959,
      "Ġbirdcage": 4960,
      "Ġrang": 4961,
      "Ġsadness": 4962,
      "ĠSuzy": 4963,
      "Ġvent": 4964,
      "Ġpeppers": 4965,
      "ĠPinky": 4966,
      "Ġreplace": 4967,
      "thm": 4968,
      "Ġtrapped": 4969,
      "Ġtalent": 4970,
      "Ġzipped": 4971,
      "hythm": 4972,
      "Ġdrinking": 4973,
      "Ġfixing": 4974,
      "Ġguit": 4975,
      "Ġbelieved": 4976,
      "Ġbuckle": 4977,
      "Ġinvite": 4978,
      "Ġproblems": 4979,
      "Ġzooming": 4980,
      "Ġfigured": 4981,
      "Ġexamined": 4982,
      "Ġticket": 4983,
      "Ġcrib": 4984,
      "Ġprayed": 4985,
      "Ġprepared": 4986,
      "Ġpupil": 4987,
      "Ġmenu": 4988,
      "Ġachieve": 4989,
      "Ġribbon": 4990,
      "Ġfreezer": 4991,
      "Ġbleed": 4992,
      "Ġtongue": 4993,
      "Ġanchor": 4994,
      "Ġvacation": 4995,
      "aj": 4996,
      "walk": 4997,
      "Ġaer": 4998,
      "Ġsomeday": 4999,
      "Ġbeside": 5000,
      "Ġpanc": 5001,
      "ari": 5002,
      "Ġhanger": 5003,
      "Ġstitch": 5004,
      "Ġripe": 5005,
      "Ġsore": 5006,
      "Ġsoaring": 5007,
      "ĠBun": 5008,
      "ĠMat": 5009,
      "Ġspit": 5010,
      "Ġcalend": 5011,
      "opl": 5012,
      "Ġlaid": 5013,
      "isten": 5014,
      "Ġoverjoy": 5015,
      "izing": 5016,
      "Ġglowed": 5017,
      "ĠRobby": 5018,
      "Ġtelev": 5019,
      "ĠEmmy": 5020,
      "Ġmath": 5021,
      "Ġaccom": 5022,
      "Ġinvit": 5023,
      "Ġdiscovery": 5024,
      "Ġcoats": 5025,
      "Ġignore": 5026,
      "ups": 5027,
      "Ġsupposed": 5028,
      "Ġcircus": 5029,
      "Ġmodel": 5030,
      "Ġordered": 5031,
      "Ġstamps": 5032,
      "Ġpermit": 5033,
      "Ġcuddled": 5034,
      "Ġherbs": 5035,
      "Ġargued": 5036,
      "Really": 5037,
      "Ġbrick": 5038,
      "Ġcrept": 5039,
      "Ġobey": 5040,
      "Ġaeropl": 5041,
      "Ġcalendar": 5042,
      "Ġoverjoyed": 5043,
      "Ġtelevision": 5044,
      "!'": 5045,
      "Yum": 5046,
      "cles": 5047,
      "do": 5048,
      "fied": 5049,
      "xy": 5050,
      "hell": 5051,
      "Ġwid": 5052,
      "Ġlect": 5053,
      "omas": 5054,
      "Ġoil": 5055,
      "Ġyucky": 5056,
      "Ġripped": 5057,
      "Ġsheet": 5058,
      "Ġupstairs": 5059,
      "ĠMiss": 5060,
      "allen": 5061,
      "Ġscore": 5062,
      "icky": 5063,
      "Ġbrings": 5064,
      "Ġpossible": 5065,
      "Ġstrang": 5066,
      "ipment": 5067,
      "Ġdrain": 5068,
      "ĠRalph": 5069,
      "Ġtremb": 5070,
      "Ġtease": 5071,
      "Ġgrey": 5072,
      "Ġrush": 5073,
      "ĠThomas": 5074,
      "ults": 5075,
      "Ġprec": 5076,
      "Ġdrift": 5077,
      "Ġspots": 5078,
      "Ġpetted": 5079,
      "osity": 5080,
      "Ġguy": 5081,
      "Ġpotion": 5082,
      "Ġwhistled": 5083,
      "Ġhits": 5084,
      "Ġkingdom": 5085,
      "Ġtickets": 5086,
      "Ġstruggled": 5087,
      "Ġguessed": 5088,
      "affe": 5089,
      "Ġreceived": 5090,
      "Ġolives": 5091,
      "Ġrecognize": 5092,
      "Ġuniverse": 5093,
      "Ġgiraffe": 5094,
      "Ġequipment": 5095,
      "Ġaeroplane": 5096,
      "Ġlecture": 5097,
      "Remember": 5098,
      "ding": 5099,
      "ik": 5100,
      "ĠTilly": 5101,
      "Ġlamb": 5102,
      "Ġheat": 5103,
      "Ġpitch": 5104,
      "Ġoxy": 5105,
      "ĠSlow": 5106,
      "Ġinse": 5107,
      "igi": 5108,
      "riage": 5109,
      "Ġspaces": 5110,
      "Ġcau": 5111,
      "agull": 5112,
      "Ġchallen": 5113,
      "bbled": 5114,
      "Ġwatches": 5115,
      "Ġfamil": 5116,
      "ĠGigi": 5117,
      "Ġthrilled": 5118,
      "ĠNick": 5119,
      "Ġcontinue": 5120,
      "Ġsatis": 5121,
      "Ġbowed": 5122,
      "Ġneighborhood": 5123,
      "Ġbeneath": 5124,
      "ĠChr": 5125,
      "Ġactiv": 5126,
      "Ġmachines": 5127,
      "Ġjewels": 5128,
      "Ġrides": 5129,
      "Ġjewelry": 5130,
      "Ġbattery": 5131,
      "Ġyawn": 5132,
      "Ġfirefight": 5133,
      "Ġdiscuss": 5134,
      "Ġguitar": 5135,
      "Ġaccompl": 5136,
      "Ġoxygen": 5137,
      "Mummy": 5138,
      "Mmm": 5139,
      "cense": 5140,
      "kins": 5141,
      "men": 5142,
      "neath": 5143,
      "Ġsip": 5144,
      "Ġduring": 5145,
      "vers": 5146,
      "igned": 5147,
      "Ġbeat": 5148,
      "amas": 5149,
      "Ġsting": 5150,
      "ĠBir": 5151,
      "Ġevent": 5152,
      "Ġlicense": 5153,
      "Ġseagull": 5154,
      "Ġexact": 5155,
      "Ġcaut": 5156,
      "Ġcable": 5157,
      "Ġmeowed": 5158,
      "Ġroaring": 5159,
      "Ġbrid": 5160,
      "Ġmuddy": 5161,
      "Ġflood": 5162,
      "ĠDav": 5163,
      "Ġchalk": 5164,
      "Ġeveryday": 5165,
      "anta": 5166,
      "Ġlotion": 5167,
      "Ġpearl": 5168,
      "Ġcalls": 5169,
      "Ġrocked": 5170,
      "ĠNot": 5171,
      "Ġtastes": 5172,
      "Ġsteel": 5173,
      "Ġvisiting": 5174,
      "Ġsidewalk": 5175,
      "Ġanswers": 5176,
      "Ġbottles": 5177,
      "Ġhorses": 5178,
      "Ġrespons": 5179,
      "Ġmailman": 5180,
      "laire": 5181,
      "Ġactually": 5182,
      "Ġreminder": 5183,
      "Ġserved": 5184,
      "Ġstirring": 5185,
      "Ġhurried": 5186,
      "Ġmarching": 5187,
      "Ġleader": 5188,
      "Ġpanic": 5189,
      "Ġmelted": 5190,
      "Ġcuddle": 5191,
      "Ġshadows": 5192,
      "Ġrepeat": 5193,
      "ĠRuby": 5194,
      "Ġinstruct": 5195,
      "Ġincluded": 5196,
      "John": 5197,
      "Ġitems": 5198,
      "Ġlanguage": 5199,
      "Ġairplane": 5200,
      "Ġwizard": 5201,
      "Ġstrangers": 5202,
      "ĠDavid": 5203,
      "And": 5204,
      "Not": 5205,
      "To": 5206,
      "iar": 5207,
      "Ġbare": 5208,
      "Ġfed": 5209,
      "Ġpony": 5210,
      "Ġpaj": 5211,
      "ays": 5212,
      "isies": 5213,
      "iding": 5214,
      "ĠSim": 5215,
      "ana": 5216,
      "imy": 5217,
      "ĠHappy": 5218,
      "ĠLike": 5219,
      "Ġwanting": 5220,
      "Ġweren": 5221,
      "Ġspike": 5222,
      "Ġflav": 5223,
      "bbing": 5224,
      "ĠClaire": 5225,
      "Ġdraws": 5226,
      "Ġseesaw": 5227,
      "Ġshopping": 5228,
      "Ġcrashed": 5229,
      "Ġmuscles": 5230,
      "Ġgrowl": 5231,
      "Ġcomple": 5232,
      "Ġminer": 5233,
      "Ġbouncy": 5234,
      "Ġpracticing": 5235,
      "Ġcomforted": 5236,
      "Ġprotected": 5237,
      "ĠZoe": 5238,
      "Ġjellyfish": 5239,
      "Ġmemory": 5240,
      "Ġrecognized": 5241,
      "Ġmeasured": 5242,
      "Ready": 5243,
      "Ġpunish": 5244,
      "Ġbrushes": 5245,
      "Ġscurried": 5246,
      "ĠKatie": 5247,
      "Ġproperly": 5248,
      "Ġdaisies": 5249,
      "Ġcrunchy": 5250,
      "Ġpancakes": 5251,
      "Ġprecious": 5252,
      "Ġpajamas": 5253,
      "ody": 5254,
      "ĠYes": 5255,
      "Ġtip": 5256,
      "Ġbill": 5257,
      "ities": 5258,
      "Ġlung": 5259,
      "ishing": 5260,
      "ĠSanta": 5261,
      "anny": 5262,
      "ĠHop": 5263,
      "ĠLizzy": 5264,
      "ĠBird": 5265,
      "ĠJam": 5266,
      "Ġroot": 5267,
      "ĠFriend": 5268,
      "ĠEx": 5269,
      "usted": 5270,
      "Ġpeered": 5271,
      "Ġsled": 5272,
      "Ġslap": 5273,
      "Ġwatered": 5274,
      "uced": 5275,
      "Ġbye": 5276,
      "Ġbrain": 5277,
      "Ġraised": 5278,
      "Ġracc": 5279,
      "Ġhardly": 5280,
      "Ġunderneath": 5281,
      "Ġexplorer": 5282,
      "Ġvoices": 5283,
      "Ġwaits": 5284,
      "Ġworks": 5285,
      "Ġcrumb": 5286,
      "Ġsteam": 5287,
      "Ġdarkness": 5288,
      "Ġentire": 5289,
      "Ġspiders": 5290,
      "Ġapologize": 5291,
      "Ġloaded": 5292,
      "Ġmuffins": 5293,
      "Ġcurtains": 5294,
      "Ġinvitation": 5295,
      "Ġexactly": 5296,
      "Ġinstructions": 5297,
      "Ġraccoon": 5298,
      ".'": 5299,
      "Mum": 5300,
      "ab": 5301,
      "fit": 5302,
      "oed": 5303,
      "tory": 5304,
      "udy": 5305,
      "Ġx": 5306,
      "hest": 5307,
      "Ġtugged": 5308,
      "Ġlines": 5309,
      "Ġheel": 5310,
      "Ġgain": 5311,
      "ĠSunny": 5312,
      "Ġnicer": 5313,
      "Ġrhythm": 5314,
      "ĠOllie": 5315,
      "Ġhistory": 5316,
      "ĠMir": 5317,
      "ĠMila": 5318,
      "Ġshot": 5319,
      "Ġann": 5320,
      "ops": 5321,
      "Ġhugging": 5322,
      "Ġbecoming": 5323,
      "Ġanytime": 5324,
      "Ġslice": 5325,
      "Ġimage": 5326,
      "ĠPandy": 5327,
      "ĠGreen": 5328,
      "Ġturning": 5329,
      "ĠNora": 5330,
      "Ġwondering": 5331,
      "Ġbites": 5332,
      "Ġmonsters": 5333,
      "Ġbuildings": 5334,
      "iggy": 5335,
      "Ġsitu": 5336,
      "Ġmouths": 5337,
      "Ġdoctors": 5338,
      "Ġbathrobe": 5339,
      "Ġbasketball": 5340,
      "Ġgiggling": 5341,
      "Ġgathering": 5342,
      "Ġparked": 5343,
      "Ġpinched": 5344,
      "Ġknights": 5345,
      "Ġescaped": 5346,
      "Ġcamping": 5347,
      "Ġtracks": 5348,
      "ĠMikey": 5349,
      "Ġurged": 5350,
      "Ġdisagree": 5351,
      "Ġcurled": 5352,
      "Ġfireworks": 5353,
      "ĠSadly": 5354,
      "ĠSadie": 5355,
      "Ġornaments": 5356,
      "Ġbuzzing": 5357,
      "Ġdemanded": 5358,
      "Ġcartoons": 5359,
      "Ġladybug": 5360,
      "ĠFollow": 5361,
      "ĠChirpy": 5362,
      "Ġventured": 5363,
      "ĠSlowly": 5364,
      "Ġinsect": 5365,
      "Ġbridges": 5366,
      "Ġbarely": 5367,
      "Jack": 5368,
      "cery": 5369,
      "fy": 5370,
      "oved": 5371,
      "pite": 5372,
      "uke": 5373,
      "Ġtour": 5374,
      "Ġfet": 5375,
      "Ġfash": 5376,
      "ĠThese": 5377,
      "Ġgaz": 5378,
      "Ġinch": 5379,
      "cky": 5380,
      "ĠLuke": 5381,
      "htray": 5382,
      "ĠAm": 5383,
      "Ġashtray": 5384,
      "Ġexha": 5385,
      "Ġclick": 5386,
      "omething": 5387,
      "Ġworries": 5388,
      "Ġwhatever": 5389,
      "ĠPu": 5390,
      "ĠAfterwards": 5391,
      "ĠGood": 5392,
      "thank": 5393,
      "Ġrealize": 5394,
      "Ġclimbs": 5395,
      "Ġwaiter": 5396,
      "Ġbreaking": 5397,
      "Ġsteak": 5398,
      "Ġcreation": 5399,
      "avi": 5400,
      "Ġplanned": 5401,
      "Ġsecrets": 5402,
      "ĠAlways": 5403,
      "Ġpassing": 5404,
      "Ġkicking": 5405,
      "ĠBecky": 5406,
      "Ġstarfish": 5407,
      "Ġlemons": 5408,
      "Ġfolded": 5409,
      "cape": 5410,
      "ĠGod": 5411,
      "Ġscru": 5412,
      "Ġstudying": 5413,
      "Ġdiscovering": 5414,
      "Ġtemple": 5415,
      "Ġreveal": 5416,
      "Ġpadd": 5417,
      "Ġcountryside": 5418,
      "Ġgrocery": 5419,
      "Ġacorns": 5420,
      "ĠJessie": 5421,
      "Ġlandscape": 5422,
      "Ġmentioned": 5423,
      "Ġtrembling": 5424,
      "Ġcompleted": 5425,
      "Al": 5426,
      "Mia": 5427,
      "gers": 5428,
      "mble": 5429,
      "Ġsix": 5430,
      "Ġtonight": 5431,
      "Ġfir": 5432,
      "ĠTess": 5433,
      "ĠSw": 5434,
      "lled": 5435,
      "Ġbean": 5436,
      "Ġsty": 5437,
      "Ġstare": 5438,
      "Ġstaring": 5439,
      "ĠBo": 5440,
      "Ġweb": 5441,
      "Ġliqu": 5442,
      "ĠJe": 5443,
      "ĠJon": 5444,
      "Ġsew": 5445,
      "Ġjunk": 5446,
      "Ġoutdo": 5447,
      "Ġarea": 5448,
      "Ġranch": 5449,
      "Ġstruck": 5450,
      "Ġcomfy": 5451,
      "ĠCo": 5452,
      "aker": 5453,
      "Ġgrant": 5454,
      "Ġremove": 5455,
      "ĠGary": 5456,
      "ĠRa": 5457,
      "iously": 5458,
      "Ġteasing": 5459,
      "Ġcuriosity": 5460,
      "Ġcontain": 5461,
      "itches": 5462,
      "Ġours": 5463,
      "Ġcatching": 5464,
      "Ġpaintings": 5465,
      "Ġplanet": 5466,
      "Ġpigs": 5467,
      "Ġmission": 5468,
      "Ġcollection": 5469,
      "Ġrockets": 5470,
      "Ġmatching": 5471,
      "Ġsilent": 5472,
      "Ġsilence": 5473,
      "Ġpiles": 5474,
      "Ġcompetition": 5475,
      "Ġsurface": 5476,
      "uctantly": 5477,
      "Ġdisturbed": 5478,
      "Ġitchy": 5479,
      "Ġintroduced": 5480,
      "Ġemergen": 5481,
      "ĠGranny": 5482,
      "Ġbleeding": 5483,
      "Ġbillboard": 5484,
      "ĠMira": 5485,
      "Ġexhausted": 5486,
      "Ġliquid": 5487,
      "iers": 5488,
      "lings": 5489,
      "ossible": 5490,
      "you": 5491,
      "itely": 5492,
      "Ġcous": 5493,
      "Ġmall": 5494,
      "ishes": 5495,
      "lee": 5496,
      "ĠOut": 5497,
      "ents": 5498,
      "Ġlips": 5499,
      "Ġrele": 5500,
      "Ġrelease": 5501,
      "Ġboom": 5502,
      "Ġoutfit": 5503,
      "Ġcakes": 5504,
      "Ġago": 5505,
      "elle": 5506,
      "Ġlabel": 5507,
      "Ġgotten": 5508,
      "Ġslimy": 5509,
      "ĠPenny": 5510,
      "Ġlets": 5511,
      "Ġimpossible": 5512,
      "Ġwritten": 5513,
      "Ġtremble": 5514,
      "Ġbeds": 5515,
      "Ġmaster": 5516,
      "Ġwherever": 5517,
      "Ġsinger": 5518,
      "Ġwooden": 5519,
      "Ġprinted": 5520,
      "Ġdarker": 5521,
      "Ġpartic": 5522,
      "Ġmixing": 5523,
      "Ġaccidents": 5524,
      "Ġdrinks": 5525,
      "Goodbye": 5526,
      "Ġsafer": 5527,
      "Ġsolut": 5528,
      "Ġdetermination": 5529,
      "Ġprice": 5530,
      "Ġhurric": 5531,
      "Ġsights": 5532,
      "Ġhealed": 5533,
      "Ġstrike": 5534,
      "Ġobjects": 5535,
      "Ġrubbing": 5536,
      "Ġsausages": 5537,
      "Ġseason": 5538,
      "Ġpunished": 5539,
      "Ġstudied": 5540,
      "Ġpurred": 5541,
      "Ġspaceship": 5542,
      "Ġfirefighters": 5543,
      "Ġfirm": 5544,
      "Dad": 5545,
      "Sp": 5546,
      "Sometimes": 5547,
      "abby": 5548,
      "pected": 5549,
      "Ġast": 5550,
      "Ġaff": 5551,
      "Ġwed": 5552,
      "Ġtodd": 5553,
      "Ġbun": 5554,
      "Ġcord": 5555,
      "ĠSomething": 5556,
      "Ġthro": 5557,
      "Ġhers": 5558,
      "ĠLind": 5559,
      "expected": 5560,
      "ĠOw": 5561,
      "ĠAd": 5562,
      "ĠJune": 5563,
      "Ġloose": 5564,
      "Ġgirls": 5565,
      "Ġexit": 5566,
      "Ġcape": 5567,
      "dding": 5568,
      "Ġchuck": 5569,
      "Ġchases": 5570,
      "Ġvict": 5571,
      "ĠMabel": 5572,
      "Ġwilling": 5573,
      "ffic": 5574,
      "though": 5575,
      "Ġunexpected": 5576,
      "ĠSpike": 5577,
      "Ġyelling": 5578,
      "Ġrained": 5579,
      "Ġtraffic": 5580,
      "Ġrule": 5581,
      "Ġprints": 5582,
      "Ġsteep": 5583,
      "Ġcreating": 5584,
      "Ġreluctantly": 5585,
      "Ġmustache": 5586,
      "Ġdragons": 5587,
      "Ġteaches": 5588,
      "Ġrelief": 5589,
      "Ġexpect": 5590,
      "Ġcoloured": 5591,
      "Ġresult": 5592,
      "perature": 5593,
      "ĠStar": 5594,
      "Tommy": 5595,
      "Ġdinosaurs": 5596,
      "Ġcrackers": 5597,
      "Ġsoldiers": 5598,
      "eezing": 5599,
      "Ġstruggle": 5600,
      "ĠRobbie": 5601,
      "Ġencourag": 5602,
      "Ġpenguins": 5603,
      "Ġbloomed": 5604,
      "Ġtemperature": 5605,
      "Ġcurly": 5606,
      "Ġcrowd": 5607,
      "ĠOlive": 5608,
      "Ġconfident": 5609,
      "Ġkneeled": 5610,
      "Ġactivities": 5611,
      "Ġcrumbs": 5612,
      "Ġoutdoors": 5613,
      "Ġemergency": 5614,
      "Ġparticular": 5615,
      "Ġbunnies": 5616,
      "ĠLinda": 5617,
      "aze": 5618,
      "ivery": 5619,
      "nes": 5620,
      "rig": 5621,
      "riger": 5622,
      "zen": 5623,
      "Ġtext": 5624,
      "ednes": 5625,
      "int": 5626,
      "Ġbank": 5627,
      "Ġbang": 5628,
      "Ġbones": 5629,
      "Ġhi": 5630,
      "Ġdared": 5631,
      "Ġmister": 5632,
      "Ġgaze": 5633,
      "ided": 5634,
      "ĠBee": 5635,
      "sted": 5636,
      "ĠMon": 5637,
      "Ġloops": 5638,
      "urry": 5639,
      "?\",": 5640,
      "terday": 5641,
      "ĠWednes": 5642,
      "opes": 5643,
      "Ġsca": 5644,
      "Ġscra": 5645,
      "ĠFu": 5646,
      "rol": 5647,
      "Ġblood": 5648,
      "Ġgrape": 5649,
      "Ġhowever": 5650,
      "Ġoper": 5651,
      "Ġpretti": 5652,
      "Ġstaying": 5653,
      "Ġwonders": 5654,
      "Ġworkers": 5655,
      "Ġimportance": 5656,
      "Ġcontrol": 5657,
      "Ġsweets": 5658,
      "Ġsweeties": 5659,
      "Ġbeha": 5660,
      "Ġzero": 5661,
      "Ġourselves": 5662,
      "Ġfrosting": 5663,
      "Ġfrozen": 5664,
      "Ġswims": 5665,
      "Ġtouching": 5666,
      "Ġarrive": 5667,
      "Ġhated": 5668,
      "Ġdreamt": 5669,
      "Ġsnowball": 5670,
      "ĠFlo": 5671,
      "ĠFlora": 5672,
      "Ġsits": 5673,
      "Ġdeser": 5674,
      "Ġwinner": 5675,
      "Ġexpected": 5676,
      "Ġtune": 5677,
      "Ġshrinking": 5678,
      "Ġcelebration": 5679,
      "ĠAnne": 5680,
      "Ġnetwork": 5681,
      "ceries": 5682,
      "Ġpouring": 5683,
      "Ġwisdom": 5684,
      "Ġsquares": 5685,
      "Ġsnap": 5686,
      "ĠRover": 5687,
      "ĠRoger": 5688,
      "Ġphotos": 5689,
      "Ġvanished": 5690,
      "Ġrefriger": 5691,
      "Ġshivered": 5692,
      "Ġunlocked": 5693,
      "Ġsandcastles": 5694,
      "Ġbalanced": 5695,
      "Ġachieved": 5696,
      "Ġgroceries": 5697,
      "Ġsucceeded": 5698,
      "Ġapplauded": 5699,
      "Ġdirection": 5700,
      "Ġbeginning": 5701,
      "Ġchallenge": 5702,
      "ĠSimon": 5703,
      "Ġsituation": 5704,
      "Ġhurricane": 5705,
      "Ġwedding": 5706,
      "Ġthroat": 5707,
      "ĠWednesday": 5708,
      "Ġprettiest": 5709,
      "Ġrefrigerator": 5710,
      "Sh": 5711,
      "She": 5712,
      "When": 5713,
      "iel": 5714,
      "rance": 5715,
      "Ġ1": 5716,
      "Ġsi": 5717,
      "Ġsway": 5718,
      "Ġwound": 5719,
      "Ġwink": 5720,
      "Ġmater": 5721,
      "Ġgained": 5722,
      "ides": 5723,
      "ĠLizz": 5724,
      "Ġshock": 5725,
      "ĠAbby": 5726,
      "ĠJudy": 5727,
      "idey": 5728,
      "Ġloop": 5729,
      "Ġscient": 5730,
      "ĠEl": 5731,
      "ĠEarth": 5732,
      "Ġknees": 5733,
      "Ġslapped": 5734,
      "Ġofficer": 5735,
      "Ġcub": 5736,
      "Ġbrand": 5737,
      "Ġracing": 5738,
      "Ġsnatched": 5739,
      "Ġowned": 5740,
      "Ġunderground": 5741,
      "Ġwarri": 5742,
      "ĠNina": 5743,
      "Ġdelivery": 5744,
      "ĠSpidey": 5745,
      "Ġgreet": 5746,
      "Ġusually": 5747,
      "Ġopening": 5748,
      "!âĢĿ.": 5749,
      "Ġmatched": 5750,
      "Ġowners": 5751,
      "Ġreaching": 5752,
      "Ġsisters": 5753,
      "Ġprincesses": 5754,
      "Ġfreeze": 5755,
      "Ġacted": 5756,
      "Ġroads": 5757,
      "Ġvalued": 5758,
      "Ġseats": 5759,
      "Ġdecorated": 5760,
      "Ġmountains": 5761,
      "Ġtwirling": 5762,
      "Ġworms": 5763,
      "ĠDaniel": 5764,
      "ĠSophia": 5765,
      "Ġpowers": 5766,
      "ĠPaula": 5767,
      "Ġunpacked": 5768,
      "Ġmasks": 5769,
      "Ġrepeats": 5770,
      "Ġnails": 5771,
      "Ġpatterns": 5772,
      "Ġbrushed": 5773,
      "Ġfluttered": 5774,
      "Ġtwinkle": 5775,
      "Ġstomach": 5776,
      "Ġsatisfied": 5777,
      "ĠExc": 5778,
      "Ġpaddled": 5779,
      "ĠAdam": 5780,
      "Ġchuckled": 5781,
      "rigued": 5782,
      "Ġtexture": 5783,
      "Ġmateri": 5784,
      "ĠLizzie": 5785,
      "Ġscientist": 5786,
      "Daddy": 5787,
      "Ex": 5788,
      "Happy": 5789,
      "Mama": 5790,
      "One": 5791,
      "Then": 5792,
      "bies": 5793,
      "go": 5794,
      "ien": 5795,
      "mas": 5796,
      "njoy": 5797,
      "Ġtig": 5798,
      "Ġsense": 5799,
      "Ġsib": 5800,
      "Ġbend": 5801,
      "Ġbars": 5802,
      "ouch": 5803,
      "ĠTues": 5804,
      "Ġcent": 5805,
      "Ġpause": 5806,
      "Ġpiggy": 5807,
      "ĠSal": 5808,
      "Ġbeard": 5809,
      "Ġstem": 5810,
      "Ġsobbed": 5811,
      "ĠBoth": 5812,
      "Ġloving": 5813,
      "ĠFor": 5814,
      "Ġprun": 5815,
      "Ġhomework": 5816,
      "ĠDid": 5817,
      "ĠDays": 5818,
      "Ġchoo": 5819,
      "Ġbudge": 5820,
      "obble": 5821,
      "ĠâĢĺ": 5822,
      "Ġcomm": 5823,
      "Ġadult": 5824,
      "aky": 5825,
      "Ġchef": 5826,
      "Ġstole": 5827,
      "Ġshoulders": 5828,
      "Ġbedtime": 5829,
      "Ġforgi": 5830,
      "Ġsingle": 5831,
      "ĠKelly": 5832,
      "Ġbaked": 5833,
      "Ġbabies": 5834,
      "Ġguest": 5835,
      "Ġseems": 5836,
      "Ġneighbours": 5837,
      "angled": 5838,
      "Ġplanets": 5839,
      "Ġcreamy": 5840,
      "Ġpassen": 5841,
      "Ġorganizing": 5842,
      "Ġsafari": 5843,
      "Ġcelebrating": 5844,
      "Ġfolding": 5845,
      "Ġtrips": 5846,
      "Ġperformance": 5847,
      "Ġtickle": 5848,
      "Ġcopy": 5849,
      "Ġfuzzy": 5850,
      "Ġrecording": 5851,
      "ĠPepper": 5852,
      "Ġpencils": 5853,
      "Ġencourage": 5854,
      "Ġearthqu": 5855,
      "Ġinsist": 5856,
      "Ġdelivered": 5857,
      "Ġcompletely": 5858,
      "ĠUncle": 5859,
      "Ġcostumes": 5860,
      "Ġseashell": 5861,
      "Ġbricks": 5862,
      "Ġdusty": 5863,
      "Ġregretted": 5864,
      "Ġhesitated": 5865,
      "Ġincrease": 5866,
      "Ġwaffle": 5867,
      "Quack": 5868,
      "Ġcautiously": 5869,
      "ĠJamie": 5870,
      "ĠFriends": 5871,
      "Ġfashion": 5872,
      "Ġsolution": 5873,
      "Ġsiren": 5874,
      "Ġwarrior": 5875,
      "ĠExcited": 5876,
      "Ġtigers": 5877,
      "Ġsiblings": 5878,
      "ĠTuesday": 5879,
      "Ah": 5880,
      "aa": 5881,
      "fire": 5882,
      "jo": 5883,
      "len": 5884,
      "sc": 5885,
      "sity": 5886,
      "uly": 5887,
      "vin": 5888,
      "ĠY": 5889,
      "Ġti": 5890,
      "Ġbunch": 5891,
      "Ġbumpy": 5892,
      "Ġfart": 5893,
      "Ġcal": 5894,
      "Ġheav": 5895,
      "Ġpist": 5896,
      "Ġglee": 5897,
      "ĠSa": 5898,
      "ĠSash": 5899,
      "ĠLarry": 5900,
      "Ġrumble": 5901,
      "ĠOt": 5902,
      "Ġsoak": 5903,
      "Ġplenty": 5904,
      "Ġplayers": 5905,
      "Ġwhip": 5906,
      "Ġspill": 5907,
      "Ġtheirs": 5908,
      "Ġknelt": 5909,
      "Ġbacked": 5910,
      "Ġfever": 5911,
      "ĠDuring": 5912,
      "Ġchop": 5913,
      "Ġdecides": 5914,
      "Ġtreehouse": 5915,
      "istmas": 5916,
      "Ġintrigued": 5917,
      "aren": 5918,
      "Ġknowled": 5919,
      "Ġpupp": 5920,
      "Ġpears": 5921,
      "Ġquilt": 5922,
      "Ġopin": 5923,
      "Ġneedles": 5924,
      "Ġbravery": 5925,
      "Ġsnuck": 5926,
      "ĠGre": 5927,
      "Ġunf": 5928,
      "Ġcolored": 5929,
      "Ġfoods": 5930,
      "Ġlistens": 5931,
      "Ġtractor": 5932,
      "Ġcontest": 5933,
      "Ġpatience": 5934,
      "Ġfilling": 5935,
      "Ġhider": 5936,
      "Ġtablet": 5937,
      "ĠTodd": 5938,
      "Ġmuscle": 5939,
      "Ġgrowling": 5940,
      "Ġpockets": 5941,
      "Ġinterested": 5942,
      "Ġburst": 5943,
      "Ġactions": 5944,
      "Ġentrance": 5945,
      "Ġhonk": 5946,
      "ĠBruce": 5947,
      "Ġblows": 5948,
      "Ġwipes": 5949,
      "Ġsource": 5950,
      "ĠZoomy": 5951,
      "Ġscratched": 5952,
      "Ġgracefully": 5953,
      "Ġmelting": 5954,
      "Ġbatteries": 5955,
      "Ġoysters": 5956,
      "Ġstretching": 5957,
      "Ġpotatoes": 5958,
      "Ġtempt": 5959,
      "Ġtricky": 5960,
      "ĠSharing": 5961,
      "Ġinclude": 5962,
      "lowers": 5963,
      "Ġhallway": 5964,
      "Ġuniversity": 5965,
      "Ġintroduce": 5966,
      "Ġtornado": 5967,
      "Ġsprinkles": 5968,
      "Ġguys": 5969,
      "ĠChristmas": 5970,
      "Ġmineral": 5971,
      "Ġgazed": 5972,
      "Ġafford": 5973,
      "Ġvictory": 5974,
      "Ġprunes": 5975,
      "Ġpistol": 5976,
      "ĠSasha": 5977,
      "Ġknowledge": 5978,
      "Just": 5979,
      "band": 5980,
      "ibbit": 5981,
      "lves": 5982,
      "Ġty": 5983,
      "Ġsides": 5984,
      "Ġwow": 5985,
      "Ġdied": 5986,
      "Ġpout": 5987,
      "arling": 5988,
      "ĠHarry": 5989,
      "Ġbelly": 5990,
      "Ġrisk": 5991,
      "ĠBye": 5992,
      "ĠBinky": 5993,
      "elia": 5994,
      "Ġeight": 5995,
      "ĠMany": 5996,
      "ĠAbbie": 5997,
      "ĠWin": 5998,
      "âĢĶ": 5999,
      "Ġnoon": 6000,
      "Ġmane": 6001,
      "Ġmeow": 6002,
      "ason": 6003,
      "Ġfault": 6004,
      "Ġflames": 6005,
      "Ġswooped": 6006,
      "bbly": 6007,
      "Ġgrandp": 6008,
      "Ġpeel": 6009,
      "Ġtruly": 6010,
      "emma": 6011,
      "Ġglitter": 6012,
      "ĠPr": 6013,
      "ĠGet": 6014,
      "Ġconn": 6015,
      "Ġkeeps": 6016,
      "Ġreplac": 6017,
      "ths": 6018,
      "Ġuns": 6019,
      "Ġunited": 6020,
      "Ġjoking": 6021,
      "Ġbroom": 6022,
      "Ġresting": 6023,
      "Ġrestored": 6024,
      "Ġleast": 6025,
      "usband": 6026,
      "Ġmagician": 6027,
      "Ġgrassy": 6028,
      "Ġprinter": 6029,
      "Ġprinting": 6030,
      "ĠKaren": 6031,
      "Ġhides": 6032,
      "Ġtails": 6033,
      "Ġpets": 6034,
      "oline": 6035,
      "ments": 6036,
      "Ġdesert": 6037,
      "Ġwinning": 6038,
      "Ġpacking": 6039,
      "Ġmarkers": 6040,
      "Ġrespond": 6041,
      "Ġpleasure": 6042,
      "ĠZero": 6043,
      "Ġcracked": 6044,
      "Ġpoliceman": 6045,
      "Ġadding": 6046,
      "Ġhorns": 6047,
      "Ġrecorded": 6048,
      "Ġindeed": 6049,
      "Ġcampfire": 6050,
      "Ġstripes": 6051,
      "Ġreply": 6052,
      "Ġpedals": 6053,
      "Ġlibrarian": 6054,
      "Ġrubs": 6055,
      "Ġseconds": 6056,
      "Ġseparated": 6057,
      "Ġartist": 6058,
      "Ġweeping": 6059,
      "Ġfluttering": 6060,
      "Ġquacked": 6061,
      "Ġwaffles": 6062,
      "Ġaccomplish": 6063,
      "ĠBirdy": 6064,
      "Ġannoy": 6065,
      "ĠAmelia": 6066,
      "Ġstyle": 6067,
      "ĠRabbit": 6068,
      "Ġreleased": 6069,
      "Ġencouraging": 6070,
      "Ġearthquake": 6071,
      "Ġgrandparent": 6072,
      "Ġreplaced": 6073,
      "Ha": 6074,
      "aut": 6075,
      "baby": 6076,
      "bric": 6077,
      "cl": 6078,
      "eep": 6079,
      "uri": 6080,
      "vest": 6081,
      "hee": 6082,
      "Ġtangled": 6083,
      "Ġtoe": 6084,
      "Ġcott": 6085,
      "Ġdarling": 6086,
      "ern": 6087,
      "armer": 6088,
      "iled": 6089,
      "immer": 6090,
      "Ġstair": 6091,
      "Ġstitches": 6092,
      "Ġrising": 6093,
      "Ġsoaked": 6094,
      "ĠBow": 6095,
      "Ġeast": 6096,
      "ĠMel": 6097,
      "ĠMart": 6098,
      "ĠMother": 6099,
      "Ġlied": 6100,
      "choo": 6101,
      "Ġgoals": 6102,
      "Ġjugg": 6103,
      "Ġspong": 6104,
      "Ġspikes": 6105,
      "Ġaren": 6106,
      "ĠWigg": 6107,
      "Ġallow": 6108,
      "Ġleap": 6109,
      "Ġleather": 6110,
      "Ġsomebody": 6111,
      "asm": 6112,
      "asp": 6113,
      "Ġfabric": 6114,
      "ĠFion": 6115,
      "Ġflat": 6116,
      "ĠDe": 6117,
      "Ġswirl": 6118,
      "Ġpoking": 6119,
      "Ġsorted": 6120,
      "Ġstrings": 6121,
      "ĠCarl": 6122,
      "bee": 6123,
      "Ġrocking": 6124,
      "Ġwrist": 6125,
      "Ġcoloring": 6126,
      "ĠNana": 6127,
      "ĠJaney": 6128,
      "Ġteased": 6129,
      "ĠDoggy": 6130,
      "Ġsecure": 6131,
      "Ġrolls": 6132,
      "Ġplanning": 6133,
      "Ġmixture": 6134,
      "Ġcupc": 6135,
      "Ġhighest": 6136,
      "Ġnapkins": 6137,
      "Ġsmarter": 6138,
      "Ġforgetting": 6139,
      "Ġinviting": 6140,
      "Ġpaths": 6141,
      "ĠThanks": 6142,
      "ĠBeing": 6143,
      "Ġprotecting": 6144,
      "Ġrecor": 6145,
      "Ġseeker": 6146,
      "ĠStop": 6147,
      "Ġspeaking": 6148,
      "Ġdiving": 6149,
      "Ġclowns": 6150,
      "Ġtunnels": 6151,
      "Ġzipping": 6152,
      "Ġpeeking": 6153,
      "Ġgrandbaby": 6154,
      "Ġsnakes": 6155,
      "Ġpebbles": 6156,
      "Ġmovies": 6157,
      "Ġrescued": 6158,
      "Ġlollipops": 6159,
      "Ġbumps": 6160,
      "Ġimproved": 6161,
      "Ġexperien": 6162,
      "Ġrusty": 6163,
      "allows": 6164,
      "Ġresponsible": 6165,
      "Ġfetch": 6166,
      "Ġscrubbed": 6167,
      "Ġtoddler": 6168,
      "Ġscales": 6169,
      "Ġunsure": 6170,
      "Ġsponge": 6171,
      "ĠFiona": 6172,
      "come": 6173,
      "ky": 6174,
      "od": 6175,
      "son": 6176,
      "yes": 6177,
      "Ġwobble": 6178,
      "Ġfara": 6179,
      "Ġfreed": 6180,
      "Ġlugg": 6181,
      "Ġcough": 6182,
      "Ġmice": 6183,
      "lling": 6184,
      "eth": 6185,
      "Ġbeam": 6186,
      "Ġbead": 6187,
      "Ġstern": 6188,
      "Ġropes": 6189,
      "ntil": 6190,
      "ĠBoun": 6191,
      "step": 6192,
      "Ġwears": 6193,
      "Ġshined": 6194,
      "ugs": 6195,
      "Ġlosing": 6196,
      "ica": 6197,
      "icorn": 6198,
      "Ġcans": 6199,
      "ĠWatch": 6200,
      "umm": 6201,
      "Ġscaring": 6202,
      "ĠFarmer": 6203,
      "ĠDolly": 6204,
      "Ġvowed": 6205,
      "Ġpeck": 6206,
      "Ġpeaches": 6207,
      "Ġsorting": 6208,
      "ĠCuri": 6209,
      "ĠPam": 6210,
      "ĠPipp": 6211,
      "ĠPup": 6212,
      "Ġstolen": 6213,
      "Ġcones": 6214,
      "Ġkeeper": 6215,
      "Ġunicorn": 6216,
      "Ġteasp": 6217,
      "Ġamount": 6218,
      "Ġfiremen": 6219,
      "Ġcolder": 6220,
      "Ġpretends": 6221,
      "Ġmusician": 6222,
      "ĠTwo": 6223,
      "Ġproject": 6224,
      "ĠAlthough": 6225,
      "Ġscreaming": 6226,
      "Ġrainbows": 6227,
      "Ġwrapping": 6228,
      "Ġresults": 6229,
      "Ġbanged": 6230,
      "Ġgenie": 6231,
      "ĠZara": 6232,
      "Ġspraying": 6233,
      "Ġchewing": 6234,
      "Ġtickled": 6235,
      "ĠUntil": 6236,
      "Ġsuggest": 6237,
      "Ġjackets": 6238,
      "Ġshivering": 6239,
      "cuse": 6240,
      "Ġavoid": 6241,
      "Ġrewarded": 6242,
      "Ġradishes": 6243,
      "ĠMaya": 6244,
      "ĠRobin": 6245,
      "Ġwidened": 6246,
      "Ġdrifted": 6247,
      "Ġcaused": 6248,
      "Ġfamiliar": 6249,
      "Ġflavor": 6250,
      "Ġexplorers": 6251,
      "ĠCoco": 6252,
      "Ġseashells": 6253,
      "Ġfarther": 6254,
      "Ġfaraway": 6255,
      "Ġluggage": 6256,
      "ĠPippin": 6257,
      "Ġteaspoon": 6258,
      "aired": 6259,
      "belle": 6260,
      "ippy": 6261,
      "ker": 6262,
      "mallows": 6263,
      "tuce": 6264,
      "ux": 6265,
      "vas": 6266,
      "hello": 6267,
      "Ġting": 6268,
      "Ġtim": 6269,
      "Ġaut": 6270,
      "Ġsigned": 6271,
      "Ġwest": 6272,
      "Ġhusband": 6273,
      "Ġlux": 6274,
      "Ġdipped": 6275,
      "Ġwasted": 6276,
      "Ġocc": 6277,
      "ĠSqu": 6278,
      "ĠSorry": 6279,
      "ĠSince": 6280,
      "Ġthird": 6281,
      "lect": 6282,
      "ĠLou": 6283,
      "Ġrip": 6284,
      "Ġyouth": 6285,
      "Ġplayroom": 6286,
      "Ġplaytime": 6287,
      "Ġwept": 6288,
      "Ġech": 6289,
      "Ġshall": 6290,
      "Ġneare": 6291,
      "Ġnect": 6292,
      "Ġneither": 6293,
      "Ġspook": 6294,
      "Ġcash": 6295,
      "opsy": 6296,
      "icked": 6297,
      "ashed": 6298,
      "ĠFurry": 6299,
      "Ġflap": 6300,
      "ĠDot": 6301,
      "Ġchip": 6302,
      "ĠJosie": 6303,
      "Ġbully": 6304,
      "Ġgrabbing": 6305,
      "Ġtweet": 6306,
      "Ġtwenty": 6307,
      "ĠAnnabelle": 6308,
      "obody": 6309,
      "iley": 6310,
      "izon": 6311,
      "Ġadults": 6312,
      "shmallows": 6313,
      "ĠPut": 6314,
      "Ġlettuce": 6315,
      "Ġconc": 6316,
      "Ġforehead": 6317,
      "Ġdragged": 6318,
      "ĠRiley": 6319,
      "Ġruin": 6320,
      "Ġsticking": 6321,
      "Ġbehavi": 6322,
      "Ġblocking": 6323,
      "ĠKeep": 6324,
      "Ġreads": 6325,
      "Ġfoxes": 6326,
      "Ġyesterday": 6327,
      "Ġmarshmallows": 6328,
      "ĠFlopsy": 6329,
      "Ġbookshe": 6330,
      "Ġelf": 6331,
      "Ġjoining": 6332,
      "Ġhorizon": 6333,
      "Ġmarker": 6334,
      "Ġbreathed": 6335,
      "Ġmisses": 6336,
      "Ġfits": 6337,
      "Ġburrow": 6338,
      "Ġcoral": 6339,
      "Ġhonked": 6340,
      "Ġflags": 6341,
      "ĠZip": 6342,
      "ivia": 6343,
      "Ġrepaired": 6344,
      "Ġsurrendered": 6345,
      "Ġcomplained": 6346,
      "Ġcushions": 6347,
      "Ġvideos": 6348,
      "Ġshelves": 6349,
      "Ġsuffered": 6350,
      "ĠJessica": 6351,
      "ibly": 6352,
      "ĠOlivia": 6353,
      "Ġincluding": 6354,
      "Ġwiggled": 6355,
      "Ġincreased": 6356,
      "Ġsquealed": 6357,
      "ĠMatt": 6358,
      "Today": 6359,
      "ably": 6360,
      "ĠJeff": 6361,
      "Ġcousin": 6362,
      "Ġfirmly": 6363,
      "Excuse": 6364,
      "Ġguests": 6365,
      "Ġtipt": 6366,
      "Ġresponded": 6367,
      "Ġbeads": 6368,
      "Ġnectar": 6369,
      "Ġspooky": 6370,
      "Ro": 6371,
      "Rex": 6372,
      "Ye": 6373,
      "ae": 6374,
      "aven": 6375,
      "dri": 6376,
      "eel": 6377,
      "eese": 6378,
      "mo": 6379,
      "rr": 6380,
      "san": 6381,
      "ury": 6382,
      "xi": 6383,
      "Ġtil": 6384,
      "ita": 6385,
      "itched": 6386,
      "itude": 6387,
      "Ġcust": 6388,
      "Ġden": 6389,
      "omers": 6390,
      "Ġgest": 6391,
      "Ġgeese": 6392,
      "onnie": 6393,
      "espite": 6394,
      "utter": 6395,
      "ĠListen": 6396,
      "Ġstall": 6397,
      "rie": 6398,
      "ades": 6399,
      "Ġkites": 6400,
      "Ġreass": 6401,
      "Ġanger": 6402,
      "Ġloc": 6403,
      "Ġexcept": 6404,
      "Ġcanvas": 6405,
      "Ġhelpers": 6406,
      "ĠWally": 6407,
      "Ġnodding": 6408,
      "Ġstartled": 6409,
      "Ġcarriage": 6410,
      "ĠEnjoy": 6411,
      "Ġlap": 6412,
      "Ġprank": 6413,
      "ĠSund": 6414,
      "ĠSusan": 6415,
      "ĠDespite": 6416,
      "Ġtaxi": 6417,
      "aret": 6418,
      "Ġcatches": 6419,
      "ĠEverybody": 6420,
      "Ġhanding": 6421,
      "Ġhandful": 6422,
      "ĠJohnson": 6423,
      "Ġbravest": 6424,
      "Those": 6425,
      "Ġrail": 6426,
      "ĠPip": 6427,
      "ĠPoppy": 6428,
      "ĠGemma": 6429,
      "ĠRemember": 6430,
      "ĠRicky": 6431,
      "ĠNat": 6432,
      "ĠNobody": 6433,
      "Ġremembering": 6434,
      "Ġafterwards": 6435,
      "Ġruining": 6436,
      "Ġsquish": 6437,
      "Ġwarmly": 6438,
      "Ġstorekeeper": 6439,
      "Ġsteady": 6440,
      "Ġtricked": 6441,
      "Ġdrives": 6442,
      "Ġfairies": 6443,
      "Ġmarriage": 6444,
      "Ġpaintbr": 6445,
      "ggies": 6446,
      "Ġveggies": 6447,
      "ĠAlan": 6448,
      "ĠAlong": 6449,
      "ĠAlison": 6450,
      "Ġscreams": 6451,
      "Ġexpress": 6452,
      "Ġbuckets": 6453,
      "Ġkeys": 6454,
      "Ġmailed": 6455,
      "Ġhopeful": 6456,
      "Ġcalmed": 6457,
      "Ġcheering": 6458,
      "ĠStart": 6459,
      "Ġsalty": 6460,
      "Ġtested": 6461,
      "Ġguns": 6462,
      "Ġswans": 6463,
      "Ġperforming": 6464,
      "Ġlogs": 6465,
      "Ġwishing": 6466,
      "Ġsunflowers": 6467,
      "Ġforks": 6468,
      "Ġcovers": 6469,
      "Ġglasses": 6470,
      "Ġwires": 6471,
      "Ġarrows": 6472,
      "Ġstealing": 6473,
      "Ġcrawls": 6474,
      "ĠShar": 6475,
      "Ġsneaked": 6476,
      "ĠSeeing": 6477,
      "Ġcomplaining": 6478,
      "Ġlicking": 6479,
      "Ġinstrum": 6480,
      "Ġhesitant": 6481,
      "Ġladybird": 6482,
      "ĠMegan": 6483,
      "Ġsports": 6484,
      "Ġwarnings": 6485,
      "Ġsighs": 6486,
      "iki": 6487,
      "Ġcause": 6488,
      "Ġfamilies": 6489,
      "Ġgranted": 6490,
      "Spot": 6491,
      "ĠGregg": 6492,
      "Ġaccomplishment": 6493,
      "immering": 6494,
      "Ġoccas": 6495,
      "Ġbookshelf": 6496,
      "Ġtiptoed": 6497,
      "?'": 6498,
      "Boo": 6499,
      "Have": 6500,
      "Little": 6501,
      "Run": 6502,
      "father": 6503,
      "gar": 6504,
      "garet": 6505,
      "hive": 6506,
      "hog": 6507,
      "no": 6508,
      "oh": 6509,
      "oor": 6510,
      "rops": 6511,
      "tier": 6512,
      "yan": 6513,
      "ylves": 6514,
      "Ġboo": 6515,
      "Ġhoo": 6516,
      "Ġhour": 6517,
      "Ġhitting": 6518,
      "ĠTake": 6519,
      "ĠTara": 6520,
      "ĠSylves": 6521,
      "ences": 6522,
      "Ġsale": 6523,
      "ann": 6524,
      "anie": 6525,
      "Ġthir": 6526,
      "veral": 6527,
      "esome": 6528,
      "ĠLau": 6529,
      "igning": 6530,
      "Ġramp": 6531,
      "rick": 6532,
      "Ġhissed": 6533,
      "Ġyounger": 6534,
      "ading": 6535,
      "ĠBoo": 6536,
      "ĠMick": 6537,
      "ĠMicky": 6538,
      "Ġshown": 6539,
      "Ġshave": 6540,
      "Ġdoves": 6541,
      "ĠJay": 6542,
      "Ġseveral": 6543,
      "icia": 6544,
      "Ġscoop": 6545,
      "Ġrobb": 6546,
      "Ġroots": 6547,
      "ddled": 6548,
      "iece": 6549,
      "Ġfaced": 6550,
      "Ġranger": 6551,
      "Ġcond": 6552,
      "Ġcoach": 6553,
      "Ġdecl": 6554,
      "Ġgoodnight": 6555,
      "ĠDoug": 6556,
      "Ġyourselves": 6557,
      "ĠJojo": 6558,
      "ĠMaisy": 6559,
      "Ġthoughts": 6560,
      "ĠAnother": 6561,
      "Ġtwice": 6562,
      "Ġslither": 6563,
      "Ġeats": 6564,
      "Ġprettier": 6565,
      "ĠCle": 6566,
      "Ġargu": 6567,
      "Ġstays": 6568,
      "Ġbadger": 6569,
      "ĠRita": 6570,
      "ĠRyan": 6571,
      "Ġrainco": 6572,
      "Ġdef": 6573,
      "Ġdeal": 6574,
      "Ġusual": 6575,
      "Ġbeloved": 6576,
      "Ġdresser": 6577,
      "using": 6578,
      "Ġfroze": 6579,
      "ĠDog": 6580,
      "Ġslower": 6581,
      "Ġbuying": 6582,
      "Ġcandies": 6583,
      "Ġpennies": 6584,
      "Ġjobs": 6585,
      "Ġbelieving": 6586,
      "Ġpolished": 6587,
      "Ġpolishing": 6588,
      "Ġbeehive": 6589,
      "Ġattack": 6590,
      "Ġpots": 6591,
      "Ġmints": 6592,
      "Ġdesigned": 6593,
      "Ġspoonful": 6594,
      "ĠWithout": 6595,
      "Goodnight": 6596,
      "Ġsplashes": 6597,
      "Ġembarrass": 6598,
      "Ġmatters": 6599,
      "Ġspreading": 6600,
      "ĠLeave": 6601,
      "ĠZoom": 6602,
      "Ġsupplies": 6603,
      "Ġnervously": 6604,
      "Ġprick": 6605,
      "Ġweekend": 6606,
      "Ġaddress": 6607,
      "Ġsoapy": 6608,
      "Ġclaps": 6609,
      "Ġhealth": 6610,
      "Ġgrandfather": 6611,
      "Ġawesome": 6612,
      "ĠPeggy": 6613,
      "Ġmayor": 6614,
      "ĠBluey": 6615,
      "Ġleaning": 6616,
      "Ġsnuggle": 6617,
      "Ġgems": 6618,
      "Ġsurfing": 6619,
      "Ġmushrooms": 6620,
      "Ġmagnets": 6621,
      "Ġhedgehog": 6622,
      "ronaut": 6623,
      "Ġpaddle": 6624,
      "Ġsweep": 6625,
      "Ġprovided": 6626,
      "Ġbuzzed": 6627,
      "Ġcheeks": 6628,
      "Ġtwinkling": 6629,
      "Ġcobwebs": 6630,
      "Ġdiscussed": 6631,
      "ĠVroom": 6632,
      "Ġstomped": 6633,
      "ĠMean": 6634,
      "ĠFox": 6635,
      "Quick": 6636,
      "Ġdiscussing": 6637,
      "Ġlungs": 6638,
      "ĠPuppy": 6639,
      "ĠBobbie": 6640,
      "Ġastronaut": 6641,
      "ĠFuzzy": 6642,
      "Ġoperation": 6643,
      "Ġbehaving": 6644,
      "Ġdeserve": 6645,
      "Ġchefs": 6646,
      "Ġforgiven": 6647,
      "Ġpuppies": 6648,
      "Ġopinion": 6649,
      "Ġgrandparents": 6650,
      "ĠCurious": 6651,
      "Ġautom": 6652,
      "Ġluxury": 6653,
      "eeling": 6654,
      "ĠSunday": 6655,
      "ĠSylvester": 6656,
      "Ġthirty": 6657,
      "ĠLaura": 6658,
      "Ġarguing": 6659,
      "Ġraincoat": 6660,
      "Fine": 6661,
      "Gra": 6662,
      "Jim": 6663,
      "Whee": 6664,
      "aster": 6665,
      "belt": 6666,
      "bird": 6667,
      "form": 6668,
      "lor": 6669,
      "mered": 6670,
      "upt": 6671,
      "water": 6672,
      "ĠQuack": 6673,
      "Ġheaven": 6674,
      "Ġdet": 6675,
      "Ġdie": 6676,
      "Ġdots": 6677,
      "Ġmer": 6678,
      "Ġmes": 6679,
      "Ġmitten": 6680,
      "Ġpies": 6681,
      "Ġgon": 6682,
      "Ġgall": 6683,
      "Ġgross": 6684,
      "ĠSun": 6685,
      "ĠSna": 6686,
      "atches": 6687,
      "ani": 6688,
      "iment": 6689,
      "oni": 6690,
      "Ġthreat": 6691,
      "irts": 6692,
      "ribble": 6693,
      "Ġonward": 6694,
      "child": 6695,
      "Ġgobbled": 6696,
      "indrops": 6697,
      "ĠWoo": 6698,
      "ĠWas": 6699,
      "Ġscamp": 6700,
      "Ġfeast": 6701,
      "Ġroses": 6702,
      "Ġfact": 6703,
      "ĠFire": 6704,
      "Ġflight": 6705,
      "Ġsweat": 6706,
      "Ġeverybody": 6707,
      "Ġpose": 6708,
      "Ġpuff": 6709,
      "Ġpecked": 6710,
      "ĠJackie": 6711,
      "Ġtramp": 6712,
      "obile": 6713,
      "Ġovercome": 6714,
      "Ġbraver": 6715,
      "Ġraindrops": 6716,
      "Ġglitt": 6717,
      "Ġremoved": 6718,
      "Ġfinal": 6719,
      "Ġdollhouse": 6720,
      "ĠRani": 6721,
      "Ġunw": 6722,
      "Ġunco": 6723,
      "Ġstrongest": 6724,
      "Ġyells": 6725,
      "Ġnearly": 6726,
      "Ġheading": 6727,
      "Ġpatted": 6728,
      "Ġpapa": 6729,
      "Ġlearns": 6730,
      "Ġtallest": 6731,
      "ĠGrand": 6732,
      "boat": 6733,
      "Ġcrashing": 6734,
      "Ġcompared": 6735,
      "Ġpolitely": 6736,
      "ugging": 6737,
      "Ġlifting": 6738,
      "ĠChick": 6739,
      "Ġchopped": 6740,
      "ĠBeep": 6741,
      "Ġimagining": 6742,
      "Ġantic": 6743,
      "Ġseatbelt": 6744,
      "ĠStella": 6745,
      "Ġwiping": 6746,
      "ĠMargaret": 6747,
      "Ġcrabs": 6748,
      "Ġleads": 6749,
      "Ġscratches": 6750,
      "Ġwandering": 6751,
      "Ġperformed": 6752,
      "Ġclearly": 6753,
      "Ġprayer": 6754,
      "Ġgrandchild": 6755,
      "Meow": 6756,
      "Ġawake": 6757,
      "ĠPeanut": 6758,
      "Ġvanish": 6759,
      "Ġsniffs": 6760,
      "Ġsurfboard": 6761,
      "Ġcrystals": 6762,
      "Ġscrews": 6763,
      "Ġscrewdri": 6764,
      "Ġenthusi": 6765,
      "Ġobserved": 6766,
      "Ġrequested": 6767,
      "Ġrecommended": 6768,
      "Ġribbons": 6769,
      "ĠRobert": 6770,
      "Ġsneaky": 6771,
      "ĠCarol": 6772,
      "Ġscurry": 6773,
      "Ġwiggle": 6774,
      "Ġtraveled": 6775,
      "Ġtravelled": 6776,
      "Ġdelayed": 6777,
      "Ġefforts": 6778,
      "Ġemerged": 6779,
      "Ġdirect": 6780,
      "ĠMatty": 6781,
      "Ġaccomplished": 6782,
      "Ġgrowls": 6783,
      "ĠBirdie": 6784,
      "ĠMona": 6785,
      "ĠElsie": 6786,
      "Ġcubes": 6787,
      "Ġgreeted": 6788,
      "Ġtextures": 6789,
      "Ġmaterials": 6790,
      "Ġpassengers": 6791,
      "Ġcalf": 6792,
      "Ġpouted": 6793,
      "ĠPrin": 6794,
      "Ġconnected": 6795,
      "ĠMartin": 6796,
      "Ġcupcake": 6797,
      "Ġechoed": 6798,
      "Roar": 6799,
      "Yeah": 6800,
      "Ġgesture": 6801,
      "Ġpaintbrush": 6802,
      "Ġautomobile": 6803,
      "Ġmesmer": 6804,
      "Ġgonna": 6805,
      "Ġscampered": 6806,
      "Ġtrampoline": 6807,
      "Ġscrewdriver": 6808,
      "Any": 6809,
      "Ew": 6810,
      "Mr": 6811,
      "Next": 6812,
      "Our": 6813,
      "Tw": 6814,
      "Take": 6815,
      "Uh": 6816,
      "ael": 6817,
      "boo": 6818,
      "found": 6819,
      "han": 6820,
      "hind": 6821,
      "hile": 6822,
      "oc": 6823,
      "ole": 6824,
      "va": 6825,
      "wise": 6826,
      "Ġtar": 6827,
      "Ġaud": 6828,
      "Ġsy": 6829,
      "Ġwre": 6830,
      "Ġwins": 6831,
      "Ġbak": 6832,
      "Ġfant": 6833,
      "ouble": 6834,
      "ĠTy": 6835,
      "ĠTaking": 6836,
      "ĠTabby": 6837,
      "Ġlimes": 6838,
      "Ġheight": 6839,
      "Ġdaring": 6840,
      "erm": 6841,
      "inger": 6842,
      "Ġgerm": 6843,
      "ĠSc": 6844,
      "ĠSleep": 6845,
      "atul": 6846,
      "Ġthud": 6847,
      "ĠHolly": 6848,
      "Ġinter": 6849,
      "Ġinsp": 6850,
      "Ġwithin": 6851,
      "Ġonions": 6852,
      "Ġplain": 6853,
      "ĠBizzy": 6854,
      "storm": 6855,
      "Ġforty": 6856,
      "Ġease": 6857,
      "united": 6858,
      "ĠMic": 6859,
      "ĠMouse": 6860,
      "ĠMoon": 6861,
      "ĠMuffy": 6862,
      "ĠMich": 6863,
      "Ġshady": 6864,
      "lyn": 6865,
      "allowed": 6866,
      "sequ": 6867,
      "Ġkings": 6868,
      "Ġreunited": 6869,
      "Ġnotes": 6870,
      "ĠJac": 6871,
      "ĠJelly": 6872,
      "Ġseaw": 6873,
      "Ġspy": 6874,
      "Ġcanes": 6875,
      "Ġcausing": 6876,
      "Ġmemb": 6877,
      "ĠFeeling": 6878,
      "ĠEric": 6879,
      "Ġprob": 6880,
      "Ġflas": 6881,
      "Ġflown": 6882,
      "ept": 6883,
      "Ġswallowed": 6884,
      "Ġswept": 6885,
      "Ġblink": 6886,
      "Ġblast": 6887,
      "usty": 6888,
      "Ġdads": 6889,
      "Ġposs": 6890,
      "ista": 6891,
      "aps": 6892,
      "izmo": 6893,
      "ilda": 6894,
      "oys": 6895,
      "Ġsneezing": 6896,
      "Ġarr": 6897,
      "Ġtowels": 6898,
      "ĠGizmo": 6899,
      "Ġconfu": 6900,
      "Ġconqu": 6901,
      "Ġconsequ": 6902,
      "ĠRory": 6903,
      "ĠRibbit": 6904,
      "Ġcloses": 6905,
      "ĠNell": 6906,
      "lescope": 6907,
      "Ġtelescope": 6908,
      "Ġfishy": 6909,
      "Ġworker": 6910,
      "Ġtraps": 6911,
      "Ġruler": 6912,
      "Ġuses": 6913,
      "Ġsqueezing": 6914,
      "Ġcuts": 6915,
      "Ġcreativ": 6916,
      "Ġbats": 6917,
      "Ġbows": 6918,
      "Ġfloors": 6919,
      "spe": 6920,
      "Ġsailboat": 6921,
      "ĠAllie": 6922,
      "Ġprove": 6923,
      "umbling": 6924,
      "Ġdespite": 6925,
      "Ġpeacefully": 6926,
      "Ġwraps": 6927,
      "Ġtearing": 6928,
      "ĠBehind": 6929,
      "Ġcomforting": 6930,
      "Ġsolving": 6931,
      "Ġpleaded": 6932,
      "ĠElle": 6933,
      "Ġzookeeper": 6934,
      "Ġexamining": 6935,
      "Ġleading": 6936,
      "Ġedges": 6937,
      "ĠClar": 6938,
      "ĠUnder": 6939,
      "Ġpaying": 6940,
      "Ġpreparing": 6941,
      "Ġsnaps": 6942,
      "Ġdelivering": 6943,
      "Ġtires": 6944,
      "Ġblooming": 6945,
      "ĠTrista": 6946,
      "Ġpumpkins": 6947,
      "Ġrepeated": 6948,
      "ĠShann": 6949,
      "Ġappreciated": 6950,
      "Ġvinegar": 6951,
      "ĠCatty": 6952,
      "affes": 6953,
      "ĠFrog": 6954,
      "Ġpandas": 6955,
      "Ġstroked": 6956,
      "Ġgiraffes": 6957,
      "Ġtravelling": 6958,
      "Ġpresses": 6959,
      "helle": 6960,
      "Ġwider": 6961,
      "ĠChris": 6962,
      "ĠNothing": 6963,
      "Ġpunishment": 6964,
      "ĠGoodbye": 6965,
      "Ġscraped": 6966,
      "Ġsnowballs": 6967,
      "Ġ10": 6968,
      "Ġcommun": 6969,
      "Ġinsisting": 6970,
      "Ġannoyed": 6971,
      "Ġcottage": 6972,
      "Ġexperienced": 6973,
      "Ġsuggestion": 6974,
      "Ġcashier": 6975,
      "ĠNathan": 6976,
      "Ġsquishy": 6977,
      "Ġoccasion": 6978,
      "Ġdeclared": 6979,
      "Ġprickly": 6980,
      "ĠQuackers": 6981,
      "Ġenthusiasm": 6982,
      "Ġaudience": 6983,
      "Ġfantastic": 6984,
      "ĠMichelle": 6985,
      "ĠMichael": 6986,
      "ĠJacob": 6987,
      "Ġseaweed": 6988,
      "Ġmembers": 6989,
      "Ġprobably": 6990,
      "Ġcreativity": 6991,
      "ĠShannon": 6992,
      "--": 6993,
      "All": 6994,
      "Bad": 6995,
      "Bun": 6996,
      "Fl": 6997,
      "Lucy": 6998,
      "Listen": 6999,
      "bro": 7000,
      "dies": 7001,
      "fl": 7002,
      "nk": 7003,
      "oke": 7004,
      "rily": 7005,
      "rink": 7006,
      "rup": 7007,
      "rnie": 7008,
      "rupt": 7009,
      "ratul": 7010,
      "uing": 7011,
      "Ġsens": 7012,
      "Ġtouc": 7013,
      "initely": 7014,
      "rees": 7015,
      "its": 7016,
      "Ġlent": 7017,
      "Ġlined": 7018,
      "Ġlower": 7019,
      "Ġcoup": 7020,
      "Ġdam": 7021,
      "Ġmunch": 7022,
      "Ġpours": 7023,
      "Ġpouch": 7024,
      "arles": 7025,
      "ility": 7026,
      "ids": 7027,
      "idence": 7028,
      "ĠSha": 7029,
      "atur": 7030,
      "enise": 7031,
      "Ġsadd": 7032,
      "Ġsank": 7033,
      "Ġnine": 7034,
      "Ġnast": 7035,
      "Ġthorn": 7036,
      "ĠHugs": 7037,
      "ĠLove": 7038,
      "Ġsteth": 7039,
      "Ġrather": 7040,
      "Ġplucked": 7041,
      "ĠBess": 7042,
      "ĠBaa": 7043,
      "Ġweal": 7044,
      "unched": 7045,
      "ĠMo": 7046,
      "ĠMan": 7047,
      "itted": 7048,
      "Ġdod": 7049,
      "Ġrefu": 7050,
      "ĠAny": 7051,
      "Ġboards": 7052,
      "Ġseven": 7053,
      "Ġspices": 7054,
      "ĠWater": 7055,
      "Ġbackwards": 7056,
      "Ġlevers": 7057,
      "Ġfears": 7058,
      "ongratul": 7059,
      "Ġnewfound": 7060,
      "ĠErnie": 7061,
      "Ġflapping": 7062,
      "Ġgoodby": 7063,
      "ĠDory": 7064,
      "ĠDina": 7065,
      "ĠDenise": 7066,
      "Ġcharge": 7067,
      "Ġchips": 7068,
      "ĠJose": 7069,
      "ĠMaia": 7070,
      "Ġskill": 7071,
      "Ġexplor": 7072,
      "inkled": 7073,
      "Ġwatering": 7074,
      "ĠCow": 7075,
      "Ġuntie": 7076,
      "ears": 7077,
      "Ġwobbly": 7078,
      "Ġdangers": 7079,
      "Ġfinishing": 7080,
      "ĠGabby": 7081,
      "ĠGinger": 7082,
      "Ġbadge": 7083,
      "Ġconvers": 7084,
      "ipation": 7085,
      "Ġdoorway": 7086,
      "ĠRain": 7087,
      "ĠRik": 7088,
      "ĠRavi": 7089,
      "Ġwindy": 7090,
      "Ġthrown": 7091,
      "Ġjoked": 7092,
      "ĠSpeed": 7093,
      "Ġrushing": 7094,
      "Ġcuriously": 7095,
      "Ġbelts": 7096,
      "Ġfires": 7097,
      "Ġdrawn": 7098,
      "Ġmonths": 7099,
      "ushed": 7100,
      "Ġcreations": 7101,
      "Ġlighter": 7102,
      "Ġparties": 7103,
      "Ġbatt": 7104,
      "Ġdances": 7105,
      "oscope": 7106,
      "Ġgulp": 7107,
      "anging": 7108,
      "Ġplans": 7109,
      "Ġtreated": 7110,
      "Ġheartbro": 7111,
      "Ġbowls": 7112,
      "Ġdesper": 7113,
      "Ġwinked": 7114,
      "Ġforgets": 7115,
      "ĠCharles": 7116,
      "Ġafar": 7117,
      "Ġchoices": 7118,
      "Ġacting": 7119,
      "Ġactive": 7120,
      "ĠBea": 7121,
      "Ġrobots": 7122,
      "Ġstreets": 7123,
      "Ġfootstep": 7124,
      "Ġmiles": 7125,
      "Ġrespected": 7126,
      "Ġdriveway": 7127,
      "Ġhonking": 7128,
      "ĠMarc": 7129,
      "Ġdived": 7130,
      "Ġhumans": 7131,
      "Ġcrossing": 7132,
      "ĠClown": 7133,
      "Ġcrowns": 7134,
      "Ġfrowning": 7135,
      "Ġgrandd": 7136,
      "Ġkangaroos": 7137,
      "Ġbeetles": 7138,
      "Ġbasement": 7139,
      "years": 7140,
      "Ġvanilla": 7141,
      "Ġcombed": 7142,
      "Ġpedaled": 7143,
      "Ġdiscoveries": 7144,
      "Ġunlo": 7145,
      "Ġlending": 7146,
      "Ġneatly": 7147,
      "ĠIsn": 7148,
      "Ġadmiration": 7149,
      "Ġsurroundings": 7150,
      "Ġspeaker": 7151,
      "ĠPatrick": 7152,
      "Ġsuperheroes": 7153,
      "Ġfirefly": 7154,
      "Ġrefreshing": 7155,
      "Ġfreezing": 7156,
      "Ġpurr": 7157,
      "Ġpupils": 7158,
      "Ġobeyed": 7159,
      "ĠSweet": 7160,
      "ĠExcitedly": 7161,
      "ĠOther": 7162,
      "Ġrisks": 7163,
      "ĠWinter": 7164,
      "Ġjuggling": 7165,
      "ĠDebby": 7166,
      "Ġrecorder": 7167,
      "Ġfreedom": 7168,
      "Ġsternly": 7169,
      "Ġtimer": 7170,
      "ĠDotty": 7171,
      "Ġlocal": 7172,
      "ĠStartled": 7173,
      "ĠMickey": 7174,
      "Ġdefinitely": 7175,
      "Ġmerma": 7176,
      "ĠWooly": 7177,
      "Ġanticipation": 7178,
      "Ġscurrying": 7179,
      "Ġsyrup": 7180,
      "Ġbakery": 7181,
      "Ġconsequences": 7182,
      "Ġtouches": 7183,
      "Ġcouple": 7184,
      "Ġnasty": 7185,
      "Ġstethoscope": 7186,
      "Ġwealth": 7187,
      "Ġgoodbyes": 7188,
      "ĠRiko": 7189,
      "Ġheartbroken": 7190,
      "Ġfootsteps": 7191,
      "?!\"": 7192,
      "AA": 7193,
      "Bob": 7194,
      "Great": 7195,
      "In": 7196,
      "Joe": 7197,
      "Some": 7198,
      "Time": 7199,
      "abel": 7200,
      "but": 7201,
      "bank": 7202,
      "ew": 7203,
      "eens": 7204,
      "fly": 7205,
      "gain": 7206,
      "hins": 7207,
      "lay": 7208,
      "pit": 7209,
      "the": 7210,
      "vant": 7211,
      "yond": 7212,
      "hew": 7213,
      "eds": 7214,
      "ino": 7215,
      "Ġfaded": 7216,
      "ĠTe": 7217,
      "ĠTot": 7218,
      "ĠTry": 7219,
      "Ġopp": 7220,
      "ĠSand": 7221,
      "ĠSque": 7222,
      "enzie": 7223,
      "Ġhab": 7224,
      "ords": 7225,
      "onse": 7226,
      "llen": 7227,
      "ĠHoot": 7228,
      "ley": 7229,
      "otor": 7230,
      "cker": 7231,
      "oosh": 7232,
      "Ġbeyond": 7233,
      "Ġstool": 7234,
      "Ġriddle": 7235,
      "ppa": 7236,
      "ĠOff": 7237,
      "ĠBecause": 7238,
      "stick": 7239,
      "Ġev": 7240,
      "ĠMack": 7241,
      "ĠAunt": 7242,
      "ĠTimoth": 7243,
      "ĠJana": 7244,
      "ĠJason": 7245,
      "romise": 7246,
      "ĠWell": 7247,
      "Ġscent": 7248,
      "Ġroars": 7249,
      "Ġroamed": 7250,
      "ĠFort": 7251,
      "ĠFribble": 7252,
      "ssel": 7253,
      "Ġcares": 7254,
      "Ġposit": 7255,
      "ĠJoJo": 7256,
      "ĠMae": 7257,
      "ĠMacy": 7258,
      "bbling": 7259,
      "Ġgrain": 7260,
      "ĠMaxi": 7261,
      "Ġhollow": 7262,
      "ĠAngie": 7263,
      "Ġpeep": 7264,
      "retty": 7265,
      "Ġsunsc": 7266,
      "ively": 7267,
      "Ġenemy": 7268,
      "Ġqueens": 7269,
      "Ġhandy": 7270,
      "Ġslam": 7271,
      "ĠâĢĶ": 7272,
      "Ġfond": 7273,
      "ĠChe": 7274,
      "ĠCher": 7275,
      "Ġends": 7276,
      "Ġcleared": 7277,
      "ĠPit": 7278,
      "ĠPoor": 7279,
      "ĠGlor": 7280,
      "Ġdollars": 7281,
      "ipes": 7282,
      "ĠRoo": 7283,
      "ĠRight": 7284,
      "Ġwrinkled": 7285,
      "Ġhandsome": 7286,
      "acle": 7287,
      "Ġache": 7288,
      "Ġrainy": 7289,
      "Ġdev": 7290,
      "Ġdefe": 7291,
      "Ġamong": 7292,
      "Ġwoodpe": 7293,
      "Ġstew": 7294,
      "Ġstepping": 7295,
      "ĠKen": 7296,
      "Ġsmelling": 7297,
      "Ġpromises": 7298,
      "Ġdripping": 7299,
      "Ġpointy": 7300,
      "Ġmarked": 7301,
      "Ġpetal": 7302,
      "Ġcloudy": 7303,
      "Ġtalks": 7304,
      "Ġtownspe": 7305,
      "Ġnaps": 7306,
      "ĠWhippy": 7307,
      "Ġshops": 7308,
      "Ġalongside": 7309,
      "ounced": 7310,
      "Ġdrying": 7311,
      "Ġsprang": 7312,
      "Ġlifts": 7313,
      "Ġbreathing": 7314,
      "Ġresponse": 7315,
      "Ġreturning": 7316,
      "Ġchopping": 7317,
      "Ġaction": 7318,
      "Ġkicks": 7319,
      "Ġresisted": 7320,
      "Ġbandages": 7321,
      "Ġreminding": 7322,
      "Ġtroubles": 7323,
      "Ġpuzzled": 7324,
      "Ġmotion": 7325,
      "Ġbells": 7326,
      "Ġnecklaces": 7327,
      "Ġfeeding": 7328,
      "Ġpanicked": 7329,
      "Ġdrums": 7330,
      "Ġpraying": 7331,
      "Ġcovering": 7332,
      "Ġdolphins": 7333,
      "Ġhealing": 7334,
      "ĠPeppa": 7335,
      "Ġposts": 7336,
      "ĠRollie": 7337,
      "...\"": 7338,
      "faction": 7339,
      "Ġfilms": 7340,
      "Ġsuits": 7341,
      "Ġvolcanoes": 7342,
      "uctor": 7343,
      "Ġartwork": 7344,
      "Ġdisplayed": 7345,
      "Ġzebras": 7346,
      "Ġbeeped": 7347,
      "Ġtorto": 7348,
      "ĠIsland": 7349,
      "ĠIsabel": 7350,
      "Ġweighs": 7351,
      "Ġfascinating": 7352,
      "Ġstroll": 7353,
      "ĠRussel": 7354,
      "Ġmosquitoes": 7355,
      "Ġsimply": 7356,
      "Ġyielded": 7357,
      "ĠCarla": 7358,
      "Ġconfl": 7359,
      "Ġconfidence": 7360,
      "Ġchatter": 7361,
      "Ġrustling": 7362,
      "Ġtalented": 7363,
      "ĠBunBun": 7364,
      "Ġsatisfaction": 7365,
      "ĠBirthday": 7366,
      "ĠHappyland": 7367,
      "Ġminerals": 7368,
      "abra": 7369,
      "Ġinsects": 7370,
      "Always": 7371,
      "Alright": 7372,
      "ĠJonas": 7373,
      "Ġmasterp": 7374,
      "Ġswimsuit": 7375,
      "Ġcenter": 7376,
      "Ġheavier": 7377,
      "ĠLouie": 7378,
      "Ġconcert": 7379,
      "Ġbehavior": 7380,
      "Ġtilted": 7381,
      "Ġinstruments": 7382,
      "Ġconductor": 7383,
      "Ġdirections": 7384,
      "Tweet": 7385,
      "Ġtarget": 7386,
      "Ġexploration": 7387,
      "ĠToto": 7388,
      "ĠSqueaky": 7389,
      "ĠMackenzie": 7390,
      "ĠTimothy": 7391,
      "ĠFortunately": 7392,
      "Ġsunscreen": 7393,
      "ĠGloria": 7394,
      "Ġwoodpecker": 7395,
      "Ġtownspeople": 7396,
      "!âĢĻ": 7397,
      "Ch": 7398,
      "Dear": 7399,
      "Every": 7400,
      "Honey": 7401,
      "Hmm": 7402,
      "Lila": 7403,
      "Molly": 7404,
      "Sally": 7405,
      "Sue": 7406,
      "Too": 7407,
      "Very": 7408,
      "cter": 7409,
      "cie": 7410,
      "gae": 7411,
      "hh": 7412,
      "just": 7413,
      "lers": 7414,
      "mark": 7415,
      "mates": 7416,
      "ners": 7417,
      "ulp": 7418,
      "val": 7419,
      "while": 7420,
      "yla": 7421,
      "Ġtuck": 7422,
      "Ġties": 7423,
      "Ġtiss": 7424,
      "Ġtumbled": 7425,
      "Ġaimed": 7426,
      "Ġtossed": 7427,
      "Ġwaddled": 7428,
      "ĠTia": 7429,
      "Ġcongratul": 7430,
      "Ġdot": 7431,
      "Ġdep": 7432,
      "Ġmerry": 7433,
      "Ġpon": 7434,
      "Ġoh": 7435,
      "Ġodd": 7436,
      "ĠSpl": 7437,
      "atitude": 7438,
      "Ġnibb": 7439,
      "lets": 7440,
      "ended": 7441,
      "ckless": 7442,
      "Ġund": 7443,
      "ooking": 7444,
      "ighing": 7445,
      "ambled": 7446,
      "ĠIm": 7447,
      "Ġsoot": 7448,
      "ĠBri": 7449,
      "ĠBack": 7450,
      "ĠBong": 7451,
      "ĠBust": 7452,
      "ĠBonnie": 7453,
      "Ġforce": 7454,
      "ently": 7455,
      "Ġlies": 7456,
      "Ġshoo": 7457,
      "Ġshirts": 7458,
      "Ġdolly": 7459,
      "Ġreason": 7460,
      "Ġreckless": 7461,
      "ĠAc": 7462,
      "ĠAsh": 7463,
      "ĠAgain": 7464,
      "ĠAyla": 7465,
      "ĠJax": 7466,
      "Ġspills": 7467,
      "urball": 7468,
      "Ġexch": 7469,
      "Ġcafe": 7470,
      "Ġscen": 7471,
      "Ġsculp": 7472,
      "Ġage": 7473,
      "Ġagrees": 7474,
      "Ġfailed": 7475,
      "aged": 7476,
      "Ġcosy": 7477,
      "Ġwhose": 7478,
      "Ġwhoever": 7479,
      "ssy": 7480,
      "ĠDian": 7481,
      "Ġchanging": 7482,
      "Ġswords": 7483,
      "Ġblond": 7484,
      "Ġblushed": 7485,
      "ĠJoan": 7486,
      "anted": 7487,
      "Ġexplod": 7488,
      "Ġwaters": 7489,
      "Ġsmallest": 7490,
      "ĠCol": 7491,
      "Ġflowing": 7492,
      "Ġgratitude": 7493,
      "Ġgardener": 7494,
      "Ġfift": 7495,
      "Ġglimmering": 7496,
      "Ġcheers": 7497,
      "ĠPa": 7498,
      "ĠPretty": 7499,
      "Ġwobbled": 7500,
      "Ġunderwater": 7501,
      "ĠGav": 7502,
      "Ġcleaner": 7503,
      "ĠNancy": 7504,
      "Ġsmiley": 7505,
      "ĠSpring": 7506,
      "Ġnights": 7507,
      "Ġforgives": 7508,
      "Ġsweetest": 7509,
      "Ġblocked": 7510,
      "Ġdrawers": 7511,
      "ulars": 7512,
      "ĠEmilda": 7513,
      "ĠFinny": 7514,
      "Ġsteer": 7515,
      "ĠKiki": 7516,
      "ĠGracie": 7517,
      "Ġbusiness": 7518,
      "Ġbowing": 7519,
      "Ġlessons": 7520,
      "Ġsnowmen": 7521,
      "Ġsnowfl": 7522,
      "ĠFlutter": 7523,
      "Ġunderstands": 7524,
      "Ġpetting": 7525,
      "Ġjoyful": 7526,
      "Ġvisitors": 7527,
      "Ġplanting": 7528,
      "Ġexpert": 7529,
      "ails": 7530,
      "Ġcowb": 7531,
      "Ġprotection": 7532,
      "Ġrecipe": 7533,
      "Ġdisappoint": 7534,
      "Ġcalmly": 7535,
      "Ġstirs": 7536,
      "ĠBrad": 7537,
      "Ġdecorating": 7538,
      "Ġtidying": 7539,
      "Ġscarves": 7540,
      "Ġscrambled": 7541,
      "Ġpans": 7542,
      "ĠClumsy": 7543,
      "Ġchecking": 7544,
      "ĠBloom": 7545,
      "Ġstamped": 7546,
      "Ġsnail": 7547,
      "Ġmischie": 7548,
      "Ġborrowed": 7549,
      "Ġapologised": 7550,
      "Ġstreamers": 7551,
      "Ġvibr": 7552,
      "Ġhelmets": 7553,
      "Ġbinoc": 7554,
      "Ġdesigns": 7555,
      "Ġleopards": 7556,
      "Ġcroaked": 7557,
      "Ġsending": 7558,
      "ĠTrust": 7559,
      "Ġwindowsill": 7560,
      "Ġshorts": 7561,
      "Ġscattering": 7562,
      "Ġtravels": 7563,
      "Ġbracelets": 7564,
      "Ġtwisting": 7565,
      "Ġquarreling": 7566,
      "Ġsymbols": 7567,
      "Ġrotting": 7568,
      "ĠLiza": 7569,
      "Ġsuitcases": 7570,
      "ĠRudy": 7571,
      "Ġwhispering": 7572,
      "ĠOliver": 7573,
      "Ġscratching": 7574,
      "Ġtwinkled": 7575,
      "Ġstudents": 7576,
      "Ġpedaling": 7577,
      "Ġsuffering": 7578,
      "Ġsprinkled": 7579,
      "Ġscrubbing": 7580,
      "ĠJean": 7581,
      "Ġsilently": 7582,
      "Ġcousins": 7583,
      "ĠOutside": 7584,
      "ĠOwl": 7585,
      "Ġexpecting": 7586,
      "Ġbehaved": 7587,
      "Ġswayed": 7588,
      "Ġmaterial": 7589,
      "Ġtype": 7590,
      "ĠWiggle": 7591,
      "ĠWiggly": 7592,
      "ĠBounce": 7593,
      "ĠSquirrel": 7594,
      "Ġnearest": 7595,
      "Ġreassured": 7596,
      "ĠMeanwhile": 7597,
      "Grandma": 7598,
      "Jimmy": 7599,
      "Ġgallop": 7600,
      "Ġgerms": 7601,
      "Ġinterrupt": 7602,
      "Ġpossess": 7603,
      "Ġconquered": 7604,
      "ĠNellie": 7605,
      "Ġmermaid": 7606,
      "Ġevil": 7607,
      "Ġpeeped": 7608,
      "ĠCherry": 7609,
      "Ġponies": 7610,
      "ĠBongo": 7611,
      "ĠBuster": 7612,
      "ĠAshley": 7613,
      "Ġsculpture": 7614,
      "ĠDiana": 7615,
      "ĠGavin": 7616,
      "Ġmischievous": 7617,
      "Ġbinoculars": 7618,
      "!'.": 7619,
      "Ab": 7620,
      "Fo": 7621,
      "Hop": 7622,
      "Jill": 7623,
      "Le": 7624,
      "Oops": 7625,
      "Yummy": 7626,
      "book": 7627,
      "bage": 7628,
      "cad": 7629,
      "cher": 7630,
      "crow": 7631,
      "eedy": 7632,
      "haps": 7633,
      "lt": 7634,
      "munk": 7635,
      "ns": 7636,
      "nif": 7637,
      "opped": 7638,
      "ollen": 7639,
      "rum": 7640,
      "sa": 7641,
      "sm": 7642,
      "site": 7643,
      "tons": 7644,
      "uzz": 7645,
      "vive": 7646,
      "vroom": 7647,
      "vince": 7648,
      "welcome": 7649,
      "zed": 7650,
      "zing": 7651,
      "zes": 7652,
      "Ġtant": 7653,
      "Ġtipped": 7654,
      "Ġaim": 7655,
      "inct": 7656,
      "Ġbaker": 7657,
      "Ġhood": 7658,
      "Ġwaking": 7659,
      "Ġfain": 7660,
      "ouched": 7661,
      "ition": 7662,
      "ĠTor": 7663,
      "Ġlens": 7664,
      "Ġcoug": 7665,
      "Ġcrew": 7666,
      "Ġhearing": 7667,
      "Ġdarl": 7668,
      "erg": 7669,
      "eri": 7670,
      "Ġwashes": 7671,
      "Ġmur": 7672,
      "isions": 7673,
      "ĠSk": 7674,
      "ĠSay": 7675,
      "ĠSid": 7676,
      "enel": 7677,
      "Ġsav": 7678,
      "Ġni": 7679,
      "aning": 7680,
      "anes": 7681,
      "orra": 7682,
      "orful": 7683,
      "onished": 7684,
      "ĠHi": 7685,
      "ĠHoney": 7686,
      "ĠHarp": 7687,
      "otted": 7688,
      "endy": 7689,
      "ĠLi": 7690,
      "ĠLucky": 7691,
      "Ġbeating": 7692,
      "Ġstain": 7693,
      "Ġstung": 7694,
      "Ġrott": 7695,
      "Ġplopped": 7696,
      "ĠBry": 7697,
      "ĠBumpy": 7698,
      "str": 7699,
      "ĠMin": 7700,
      "ĠMindy": 7701,
      "ĠMotor": 7702,
      "ĠMeri": 7703,
      "ching": 7704,
      "Ġshallow": 7705,
      "Ġwhipped": 7706,
      "ĠAlf": 7707,
      "Ġaside": 7708,
      "Ġnecess": 7709,
      "ĠJet": 7710,
      "ĠJanie": 7711,
      "Ġjars": 7712,
      "icles": 7713,
      "ĠWendy": 7714,
      "ĠButtons": 7715,
      "Ġclues": 7716,
      "Ġnodd": 7717,
      "icking": 7718,
      "Ġbru": 7719,
      "Ġworn": 7720,
      "Ġfarew": 7721,
      "Ġfacing": 7722,
      "ĠFather": 7723,
      "Ġcoc": 7724,
      "Ġcode": 7725,
      "Ġgoodies": 7726,
      "Ġchara": 7727,
      "Ġswollen": 7728,
      "Ġthanking": 7729,
      "Ġtapping": 7730,
      "ĠJoanna": 7731,
      "Ġbubbly": 7732,
      "ĠMazzy": 7733,
      "ĠMaple": 7734,
      "antelle": 7735,
      "Ġpeas": 7736,
      "Ġtraded": 7737,
      "Ġtrotted": 7738,
      "Ġtwin": 7739,
      "Ġslips": 7740,
      "Ġslices": 7741,
      "Ġfoc": 7742,
      "Ġfocu": 7743,
      "Ġbeaver": 7744,
      "Ġuntied": 7745,
      "empt": 7746,
      "Ġgardens": 7747,
      "shadow": 7748,
      "Ġsnort": 7749,
      "Ġglued": 7750,
      "ĠPips": 7751,
      "ĠPenel": 7752,
      "Ġfins": 7753,
      "Ġstopping": 7754,
      "Ġconvince": 7755,
      "ĠRusty": 7756,
      "ĠNan": 7757,
      "Ġdisob": 7758,
      "ĠSpeedy": 7759,
      "sol": 7760,
      "Ġrains": 7761,
      "Ġbrightest": 7762,
      "Ġsquaw": 7763,
      "Ġdressing": 7764,
      "Ġsandy": 7765,
      "Ġsandpit": 7766,
      "ulf": 7767,
      "aste": 7768,
      "astated": 7769,
      "Ġswimmer": 7770,
      "Ġparted": 7771,
      "Ġmovements": 7772,
      "Ġduckling": 7773,
      "rench": 7774,
      "Ġshoel": 7775,
      "ĠJennif": 7776,
      "Ġtables": 7777,
      "Ġjoyfully": 7778,
      "Ġguide": 7779,
      "Ġgrows": 7780,
      "ĠTwig": 7781,
      "olcano": 7782,
      "Ġdragonfly": 7783,
      "Ġattempt": 7784,
      "Ġwelcoming": 7785,
      "ĠAli": 7786,
      "brina": 7787,
      "Ġrivers": 7788,
      "Ġriverbank": 7789,
      "Ġmini": 7790,
      "Ġsprout": 7791,
      "Ġinvol": 7792,
      "ĠChantelle": 7793,
      "Ġearned": 7794,
      "ertain": 7795,
      "balls": 7796,
      "Ġcorals": 7797,
      "Ġtunes": 7798,
      "Ġpurpose": 7799,
      "Ġstorms": 7800,
      "Ġlaying": 7801,
      "Ġcheerfully": 7802,
      "Ġgarbage": 7803,
      "Ġgasps": 7804,
      "ĠBrother": 7805,
      "Ġcooper": 7806,
      "Ġself": 7807,
      "ceptor": 7808,
      "Ġtrusting": 7809,
      "Ġtidied": 7810,
      "Ġtests": 7811,
      "ĠZigzag": 7812,
      "Which": 7813,
      "Ġscrub": 7814,
      "Ġadds": 7815,
      "queak": 7816,
      "Ġterrified": 7817,
      "Ġtickling": 7818,
      "Ġclassmates": 7819,
      "Ġwiser": 7820,
      "Ġincredibly": 7821,
      "Ġprayers": 7822,
      "Ġpiled": 7823,
      "ĠUp": 7824,
      "Ġpays": 7825,
      "Ġorders": 7826,
      "Ġawful": 7827,
      "Ġpanting": 7828,
      "Ġrescuing": 7829,
      "Ġquestioned": 7830,
      "ironment": 7831,
      "Ġenvironment": 7832,
      "udged": 7833,
      "Ġcuddly": 7834,
      "Ġsniffing": 7835,
      "Ġpigeons": 7836,
      "Ġsurfer": 7837,
      "Ġmember": 7838,
      "Ġengines": 7839,
      "Ġunpacking": 7840,
      "ĠTrouble": 7841,
      "Ġknocks": 7842,
      "Ġcomets": 7843,
      "Ġstacked": 7844,
      "Ġappreciation": 7845,
      "Ġpads": 7846,
      "Ġkayaking": 7847,
      "Ġexercises": 7848,
      "ĠMaggy": 7849,
      "Ġfleas": 7850,
      "Ġexplains": 7851,
      "Ġjailer": 7852,
      "Ġreversing": 7853,
      "Ġmeatballs": 7854,
      "Ġcomputers": 7855,
      "Ġstroke": 7856,
      "Ġstrolled": 7857,
      "Ġstudent": 7858,
      "ĠCari": 7859,
      "Ġpurring": 7860,
      "Ġwiggly": 7861,
      "Ġshovels": 7862,
      "ĠWhoever": 7863,
      "Ġweights": 7864,
      "ĠChirpie": 7865,
      "Ġsqueaky": 7866,
      "Ġspits": 7867,
      "Ġflavors": 7868,
      "ĠPudding": 7869,
      "Ġwinks": 7870,
      "Ġchooses": 7871,
      "Ġchoosing": 7872,
      "Ġpassenger": 7873,
      "ĠSabrina": 7874,
      "Ġtemptation": 7875,
      "Ġglittering": 7876,
      "Ġleapt": 7877,
      "ĠBouncy": 7878,
      "ummies": 7879,
      "Ġtingle": 7880,
      "Ġchipmunk": 7881,
      "Ġcustomers": 7882,
      "Ġexpression": 7883,
      "ĠSharin": 7884,
      "ĠClem": 7885,
      "Ġforgiveness": 7886,
      "Ġglittered": 7887,
      "ĠPrincess": 7888,
      "Ġmesmerized": 7889,
      "Ġinspired": 7890,
      "Ġarranged": 7891,
      "Fluffy": 7892,
      "Ġthorns": 7893,
      "ĠBessie": 7894,
      "Ġconversation": 7895,
      "Ġgranddaughter": 7896,
      "Ġslammed": 7897,
      "Ġdevastated": 7898,
      "Ġtortoise": 7899,
      "Ġmasterpiece": 7900,
      "Ġcongratulated": 7901,
      "ĠAcceptor": 7902,
      "Ġexploded": 7903,
      "ĠColorful": 7904,
      "Ġsnowflakes": 7905,
      "cadabra": 7906,
      "Ġtantrum": 7907,
      "ĠTori": 7908,
      "Ġdarlings": 7909,
      "orraine": 7910,
      "ĠHarper": 7911,
      "Ġrotten": 7912,
      "ĠBryan": 7913,
      "Ġfarewell": 7914,
      "Ġcharacter": 7915,
      "Ġfocused": 7916,
      "ĠPipsqueak": 7917,
      "ĠPenelope": 7918,
      "ĠJennifer": 7919,
      "'?\"": 7920,
      "Amy": 7921,
      "Billy": 7922,
      "Em": 7923,
      "For": 7924,
      "His": 7925,
      "Hold": 7926,
      "Jane": 7927,
      "Like": 7928,
      "Mine": 7929,
      "On": 7930,
      "gel": 7931,
      "ift": 7932,
      "ieter": 7933,
      "jack": 7934,
      "jest": 7935,
      "lon": 7936,
      "mie": 7937,
      "nna": 7938,
      "nugg": 7939,
      "oss": 7940,
      "pen": 7941,
      "please": 7942,
      "taker": 7943,
      "we": 7944,
      "whe": 7945,
      "wing": 7946,
      "ware": 7947,
      "Ġ2": 7948,
      "ĠQuick": 7949,
      "Ġtill": 7950,
      "Ġtips": 7951,
      "Ġtugging": 7952,
      "Ġtummies": 7953,
      "Ġais": 7954,
      "Ġsou": 7955,
      "Ġsill": 7956,
      "Ġsomers": 7957,
      "Ġsigning": 7958,
      "Ġwrench": 7959,
      "Ġtheat": 7960,
      "Ġtoss": 7961,
      "inch": 7962,
      "Ġbom": 7963,
      "Ġbound": 7964,
      "Ġwakes": 7965,
      "Ġwanna": 7966,
      "Ġfulf": 7967,
      "ĠTime": 7968,
      "ĠTiger": 7969,
      "ĠTino": 7970,
      "Ġhen": 7971,
      "Ġdip": 7972,
      "erted": 7973,
      "Ġmoo": 7974,
      "Ġpound": 7975,
      "omer": 7976,
      "iliar": 7977,
      "Ġgri": 7978,
      "ĠSummer": 7979,
      "ĠSuna": 7980,
      "ĠSora": 7981,
      "ĠSatur": 7982,
      "ĠSnugg": 7983,
      "orking": 7984,
      "onest": 7985,
      "lle": 7986,
      "ĠHood": 7987,
      "ĠHippo": 7988,
      "ĠHallow": 7989,
      "lection": 7990,
      "ĠHello": 7991,
      "ester": 7992,
      "ĠLots": 7993,
      "ĠLively": 7994,
      "ĠLorraine": 7995,
      "Ġyel": 7996,
      "oops": 7997,
      "aming": 7998,
      "amiliar": 7999,
      "Ġrout": 8000,
      "Ġrays": 8001,
      "cel": 8002,
      "ĠOh": 8003,
      "ĠOuch": 8004,
      "ados": 8005,
      "ĠBigg": 8006,
      "ĠBiggy": 8007,
      "eliness": 8008,
      "Ġform": 8009,
      "Ġforts": 8010,
      "Ġweeds": 8011,
      "Ġelect": 8012,
      "ĠMad": 8013,
      "Ġwhizz": 8014,
      "Ġkilled": 8015,
      "Ġsmelt": 8016,
      "Ġreapp": 8017,
      "Ġrewards": 8018,
      "Ġass": 8019,
      "Ġbond": 8020,
      "Ġjigg": 8021,
      "Ġouting": 8022,
      "Ġsped": 8023,
      "Ġspins": 8024,
      "artie": 8025,
      "ically": 8026,
      "ĠWelcome": 8027,
      "ighting": 8028,
      "ightning": 8029,
      "umin": 8030,
      "Ġknots": 8031,
      "Ġcages": 8032,
      "Ġnoses": 8033,
      "Ġscored": 8034,
      "Ġalthough": 8035,
      "Ġalgae": 8036,
      "getic": 8037,
      "ddie": 8038,
      "ielle": 8039,
      "ĠFair": 8040,
      "ĠFurball": 8041,
      "ĠEddie": 8042,
      "elling": 8043,
      "Ġotherwise": 8044,
      "Ġflick": 8045,
      "ooks": 8046,
      "ĠDin": 8047,
      "ĠDare": 8048,
      "ĠDee": 8049,
      "ĠDepend": 8050,
      "Ġchill": 8051,
      "Ġchilly": 8052,
      "Ġchanges": 8053,
      "Ġdoggie": 8054,
      "Ġbloss": 8055,
      "Ġcaretaker": 8056
    },
    "merges": [
      [
        "h",
        "e"
      ],
      [
        "Ġ",
        "t"
      ],
      [
        "Ġ",
        "a"
      ],
      [
        "Ġ",
        "s"
      ],
      [
        "n",
        "d"
      ],
      [
        "Ġ",
        "w"
      ],
      [
        "Ġt",
        "he"
      ],
      [
        "e",
        "d"
      ],
      [
        "Ġa",
        "nd"
      ],
      [
        "Ġt",
        "o"
      ],
      [
        "i",
        "n"
      ],
      [
        "Ġ",
        "b"
      ],
      [
        "č",
        "Ċ"
      ],
      [
        "Ġ",
        "h"
      ],
      [
        "Ġw",
        "a"
      ],
      [
        "r",
        "e"
      ],
      [
        "Ġ",
        "f"
      ],
      [
        "o",
        "u"
      ],
      [
        "i",
        "t"
      ],
      [
        "Ġ",
        "T"
      ],
      [
        "Ġ",
        "l"
      ],
      [
        "Ġ",
        "c"
      ],
      [
        "Ġ",
        "he"
      ],
      [
        "Ġ",
        "d"
      ],
      [
        "e",
        "r"
      ],
      [
        "Ġwa",
        "s"
      ],
      [
        "Ġ",
        "m"
      ],
      [
        "Ġ",
        "p"
      ],
      [
        "o",
        "m"
      ],
      [
        "Ġ",
        "o"
      ],
      [
        "a",
        "y"
      ],
      [
        "in",
        "g"
      ],
      [
        "a",
        "r"
      ],
      [
        "i",
        "s"
      ],
      [
        "ĠT",
        "he"
      ],
      [
        "i",
        "l"
      ],
      [
        "Ġ",
        "g"
      ],
      [
        "i",
        "d"
      ],
      [
        "Ġ",
        "S"
      ],
      [
        "a",
        "t"
      ],
      [
        "e",
        "n"
      ],
      [
        "Ġs",
        "a"
      ],
      [
        "Ġ",
        "n"
      ],
      [
        "Ġh",
        "a"
      ],
      [
        "a",
        "n"
      ],
      [
        "i",
        "m"
      ],
      [
        "o",
        "r"
      ],
      [
        "o",
        "n"
      ],
      [
        "Ġ",
        "it"
      ],
      [
        "Ġt",
        "h"
      ],
      [
        "l",
        "l"
      ],
      [
        "Ġ",
        "H"
      ],
      [
        "l",
        "e"
      ],
      [
        "Ġ",
        "\""
      ],
      [
        "e",
        "t"
      ],
      [
        "Ġhe",
        "r"
      ],
      [
        "i",
        "r"
      ],
      [
        "ĠS",
        "he"
      ],
      [
        "o",
        "t"
      ],
      [
        "ĠH",
        "e"
      ],
      [
        "e",
        "nd"
      ],
      [
        "Ġ",
        "in"
      ],
      [
        "v",
        "er"
      ],
      [
        "e",
        "s"
      ],
      [
        "o",
        "w"
      ],
      [
        "u",
        "t"
      ],
      [
        "c",
        "k"
      ],
      [
        "ĠThe",
        "y"
      ],
      [
        "Ġ",
        "u"
      ],
      [
        "l",
        "d"
      ],
      [
        "Ġsa",
        "id"
      ],
      [
        "Ġ",
        "L"
      ],
      [
        "Ġ",
        "y"
      ],
      [
        "e",
        "x"
      ],
      [
        "o",
        "o"
      ],
      [
        "i",
        "g"
      ],
      [
        "Ġb",
        "e"
      ],
      [
        "a",
        "m"
      ],
      [
        "Ġs",
        "t"
      ],
      [
        "Ġ",
        "r"
      ],
      [
        "il",
        "y"
      ],
      [
        "Ġs",
        "he"
      ],
      [
        "c",
        "e"
      ],
      [
        "Ġ",
        "I"
      ],
      [
        "p",
        "p"
      ],
      [
        "Ġ",
        "O"
      ],
      [
        "Ġ",
        "čĊ"
      ],
      [
        "it",
        "h"
      ],
      [
        "ĠO",
        "n"
      ],
      [
        "k",
        "e"
      ],
      [
        "Ġw",
        "ith"
      ],
      [
        "v",
        "e"
      ],
      [
        "k",
        "ed"
      ],
      [
        "Ġo",
        "f"
      ],
      [
        "Ġs",
        "o"
      ],
      [
        "r",
        "i"
      ],
      [
        "Ġo",
        "n"
      ],
      [
        "Ġh",
        "is"
      ],
      [
        "f",
        "t"
      ],
      [
        "ĠL",
        "ily"
      ],
      [
        "Ġy",
        "ou"
      ],
      [
        "Ġp",
        "l"
      ],
      [
        "Ġd",
        "ay"
      ],
      [
        "ver",
        "y"
      ],
      [
        "n",
        "t"
      ],
      [
        "a",
        "d"
      ],
      [
        "Ġ",
        "B"
      ],
      [
        "Ġth",
        "at"
      ],
      [
        "Ġu",
        "p"
      ],
      [
        "e",
        "l"
      ],
      [
        "s",
        "t"
      ],
      [
        "Ġha",
        "d"
      ],
      [
        "Ġpl",
        "ay"
      ],
      [
        "ex",
        "t"
      ],
      [
        "Ġthe",
        "y"
      ],
      [
        "Ġm",
        "om"
      ],
      [
        "Ġf",
        "or"
      ],
      [
        "Ġw",
        "e"
      ],
      [
        "m",
        "y"
      ],
      [
        "Ġ",
        "e"
      ],
      [
        "ou",
        "ld"
      ],
      [
        "'",
        "s"
      ],
      [
        "u",
        "n"
      ],
      [
        "o",
        "ft"
      ],
      [
        "<",
        "|"
      ],
      [
        "|",
        ">"
      ],
      [
        "Ġ",
        "<|"
      ],
      [
        "end",
        "oft"
      ],
      [
        "endoft",
        "ext"
      ],
      [
        "Ġ",
        "M"
      ],
      [
        "en",
        "t"
      ],
      [
        "it",
        "t"
      ],
      [
        "Ġl",
        "i"
      ],
      [
        "Ġha",
        "pp"
      ],
      [
        "he",
        "r"
      ],
      [
        "ou",
        "t"
      ],
      [
        "c",
        "h"
      ],
      [
        "Ġwa",
        "nt"
      ],
      [
        "Ġs",
        "h"
      ],
      [
        "l",
        "y"
      ],
      [
        "ou",
        "nd"
      ],
      [
        "itt",
        "le"
      ],
      [
        "a",
        "ll"
      ],
      [
        "im",
        "e"
      ],
      [
        "Ġd",
        "o"
      ],
      [
        "Ġl",
        "ittle"
      ],
      [
        "Ġt",
        "ime"
      ],
      [
        "Ġ",
        "very"
      ],
      [
        "Ġthe",
        "re"
      ],
      [
        "om",
        "e"
      ],
      [
        "Ġw",
        "h"
      ],
      [
        "s",
        "e"
      ],
      [
        "h",
        "t"
      ],
      [
        "Ġ",
        "k"
      ],
      [
        "Ġs",
        "m"
      ],
      [
        "Ġ",
        "re"
      ],
      [
        "a",
        "l"
      ],
      [
        "Ġ",
        "A"
      ],
      [
        "Ġn",
        "ot"
      ],
      [
        "Ġb",
        "ig"
      ],
      [
        "Ġhapp",
        "y"
      ],
      [
        "a",
        "ck"
      ],
      [
        "ri",
        "end"
      ],
      [
        "Ġa",
        "s"
      ],
      [
        "Ġf",
        "riend"
      ],
      [
        "Ġb",
        "ut"
      ],
      [
        "Ġsa",
        "w"
      ],
      [
        "Ġa",
        "n"
      ],
      [
        "ĠI",
        "t"
      ],
      [
        "Ġn",
        "e"
      ],
      [
        "r",
        "a"
      ],
      [
        "ĠT",
        "im"
      ],
      [
        "ĠOn",
        "e"
      ],
      [
        ".",
        "\""
      ],
      [
        "Ġ",
        "J"
      ],
      [
        "r",
        "y"
      ],
      [
        "Ġ",
        "is"
      ],
      [
        "v",
        "ed"
      ],
      [
        "'",
        "t"
      ],
      [
        "id",
        "e"
      ],
      [
        "!",
        "\""
      ],
      [
        "ĠOn",
        "ce"
      ],
      [
        "Ġl",
        "oo"
      ],
      [
        "a",
        "ke"
      ],
      [
        "u",
        "g"
      ],
      [
        "Ġwe",
        "re"
      ],
      [
        "e",
        "c"
      ],
      [
        "Ġl",
        "o"
      ],
      [
        "o",
        "re"
      ],
      [
        "Ġb",
        "o"
      ],
      [
        "ir",
        "l"
      ],
      [
        "Ġup",
        "on"
      ],
      [
        "Ġh",
        "im"
      ],
      [
        "Ġto",
        "o"
      ],
      [
        "Ġg",
        "irl"
      ],
      [
        "Ġs",
        "e"
      ],
      [
        "Ġg",
        "o"
      ],
      [
        "Ġ",
        "j"
      ],
      [
        "ar",
        "d"
      ],
      [
        "Ġwant",
        "ed"
      ],
      [
        "Ġ",
        "out"
      ],
      [
        "il",
        "l"
      ],
      [
        "Ġsm",
        "il"
      ],
      [
        "f",
        "u"
      ],
      [
        "he",
        "n"
      ],
      [
        "w",
        "ay"
      ],
      [
        "Ġc",
        "ould"
      ],
      [
        "Ġs",
        "p"
      ],
      [
        "i",
        "nd"
      ],
      [
        "Ġa",
        "t"
      ],
      [
        "u",
        "r"
      ],
      [
        "Ġthe",
        "m"
      ],
      [
        "Ġ",
        "ex"
      ],
      [
        "a",
        "in"
      ],
      [
        "Ġa",
        "re"
      ],
      [
        "Ġd",
        "id"
      ],
      [
        "r",
        "ound"
      ],
      [
        "Ġthe",
        "ir"
      ],
      [
        "Ġw",
        "ent"
      ],
      [
        "he",
        "d"
      ],
      [
        "ar",
        "t"
      ],
      [
        "ĠT",
        "om"
      ],
      [
        "ĠB",
        "en"
      ],
      [
        "i",
        "c"
      ],
      [
        "r",
        "om"
      ],
      [
        "Ġn",
        "am"
      ],
      [
        "l",
        "p"
      ],
      [
        "h",
        "ing"
      ],
      [
        "Ġc",
        "an"
      ],
      [
        "Ġha",
        "ve"
      ],
      [
        "Ġhe",
        "lp"
      ],
      [
        "fu",
        "l"
      ],
      [
        "?",
        "\""
      ],
      [
        "t",
        "er"
      ],
      [
        "Ġ",
        "W"
      ],
      [
        "Ġfriend",
        "s"
      ],
      [
        "ig",
        "ht"
      ],
      [
        "Ġa",
        "ll"
      ],
      [
        "u",
        "m"
      ],
      [
        "Ġk",
        "n"
      ],
      [
        "oo",
        "d"
      ],
      [
        "on",
        "e"
      ],
      [
        "Ġb",
        "ack"
      ],
      [
        "ar",
        "k"
      ],
      [
        "ĠTim",
        "my"
      ],
      [
        "ĠB",
        "ut"
      ],
      [
        "Ġc",
        "l"
      ],
      [
        "Ġsmil",
        "ed"
      ],
      [
        "Ġnam",
        "ed"
      ],
      [
        "Ġc",
        "a"
      ],
      [
        "Ġf",
        "un"
      ],
      [
        "ou",
        "g"
      ],
      [
        "â",
        "Ģ"
      ],
      [
        "Ġas",
        "ked"
      ],
      [
        "Ġn",
        "o"
      ],
      [
        "Ġlo",
        "ved"
      ],
      [
        "el",
        "t"
      ],
      [
        "Ġl",
        "e"
      ],
      [
        "o",
        "p"
      ],
      [
        "Ġs",
        "c"
      ],
      [
        "i",
        "ck"
      ],
      [
        "Ġf",
        "elt"
      ],
      [
        "Ġa",
        "round"
      ],
      [
        "Ġloo",
        "ked"
      ],
      [
        "s",
        "ide"
      ],
      [
        "Ġa",
        "l"
      ],
      [
        "Y",
        "ou"
      ],
      [
        "am",
        "e"
      ],
      [
        "g",
        "et"
      ],
      [
        "om",
        "et"
      ],
      [
        "Ġf",
        "e"
      ],
      [
        "Ġbo",
        "y"
      ],
      [
        "Ġm",
        "an"
      ],
      [
        "Ġb",
        "ir"
      ],
      [
        "Ġto",
        "y"
      ],
      [
        "u",
        "re"
      ],
      [
        "Ġse",
        "e"
      ],
      [
        "Ġm",
        "e"
      ],
      [
        "Ġli",
        "ke"
      ],
      [
        "Ġr",
        "o"
      ],
      [
        "Ġst",
        "art"
      ],
      [
        "Ġb",
        "r"
      ],
      [
        "Ġw",
        "ould"
      ],
      [
        "Ġs",
        "ome"
      ],
      [
        "d",
        "d"
      ],
      [
        "a",
        "s"
      ],
      [
        "i",
        "ce"
      ],
      [
        "Ġbir",
        "d"
      ],
      [
        "Ġs",
        "ay"
      ],
      [
        "on",
        "g"
      ],
      [
        "Ġs",
        "omet"
      ],
      [
        "get",
        "her"
      ],
      [
        "Ġw",
        "or"
      ],
      [
        "k",
        "ing"
      ],
      [
        "re",
        "e"
      ],
      [
        "Ġa",
        "g"
      ],
      [
        "Ġwh",
        "at"
      ],
      [
        "ing",
        "s"
      ],
      [
        "i",
        "e"
      ],
      [
        "ow",
        "n"
      ],
      [
        "ad",
        "e"
      ],
      [
        "Ġstart",
        "ed"
      ],
      [
        ",",
        "\""
      ],
      [
        "Ġf",
        "a"
      ],
      [
        "Ġto",
        "gether"
      ],
      [
        "a",
        "g"
      ],
      [
        "ar",
        "ed"
      ],
      [
        "Ġa",
        "way"
      ],
      [
        "it",
        "ed"
      ],
      [
        "Ġsomet",
        "hing"
      ],
      [
        "Ġm",
        "ake"
      ],
      [
        "Ġr",
        "an"
      ],
      [
        "ou",
        "d"
      ],
      [
        "Ġex",
        "c"
      ],
      [
        "Ġp",
        "ark"
      ],
      [
        "Ġ",
        "F"
      ],
      [
        "Ġc",
        "o"
      ],
      [
        "Ġm",
        "ade"
      ],
      [
        "b",
        "le"
      ],
      [
        "Ġsa",
        "d"
      ],
      [
        "Ġo",
        "t"
      ],
      [
        "Ġc",
        "ar"
      ],
      [
        "Ġf",
        "rom"
      ],
      [
        "Ġne",
        "w"
      ],
      [
        "Ġw",
        "hen"
      ],
      [
        "pp",
        "ed"
      ],
      [
        "Ġ",
        "E"
      ],
      [
        "e",
        "ll"
      ],
      [
        "h",
        "at"
      ],
      [
        "Ġl",
        "a"
      ],
      [
        "Ġp",
        "r"
      ],
      [
        "Ġot",
        "her"
      ],
      [
        "Ġthe",
        "n"
      ],
      [
        "Ġh",
        "ome"
      ],
      [
        "Ġm",
        "u"
      ],
      [
        "ĠM",
        "om"
      ],
      [
        "Ġp",
        "ut"
      ],
      [
        "Ġag",
        "ain"
      ],
      [
        "p",
        "l"
      ],
      [
        "Ġ",
        "You"
      ],
      [
        "Ġf",
        "ound"
      ],
      [
        "i",
        "f"
      ],
      [
        "ĠS",
        "u"
      ],
      [
        "Ġwh",
        "o"
      ],
      [
        "Ġf",
        "l"
      ],
      [
        "Ġwa",
        "l"
      ],
      [
        "es",
        "t"
      ],
      [
        "oug",
        "ht"
      ],
      [
        "all",
        "y"
      ],
      [
        "e",
        "p"
      ],
      [
        "s",
        "s"
      ],
      [
        "Ġd",
        "ec"
      ],
      [
        "Ġh",
        "ug"
      ],
      [
        "q",
        "u"
      ],
      [
        "oo",
        "k"
      ],
      [
        "Ġplay",
        "ing"
      ],
      [
        "Ġexc",
        "ited"
      ],
      [
        "ri",
        "ed"
      ],
      [
        "Ġg",
        "et"
      ],
      [
        "Ġg",
        "ood"
      ],
      [
        "Ġ",
        "D"
      ],
      [
        "Ġc",
        "h"
      ],
      [
        "Ġs",
        "w"
      ],
      [
        "a",
        "ch"
      ],
      [
        "ou",
        "s"
      ],
      [
        "r",
        "o"
      ],
      [
        "Ġth",
        "ings"
      ],
      [
        "Ġ",
        "v"
      ],
      [
        "Ġsay",
        "s"
      ],
      [
        "Ġg",
        "ot"
      ],
      [
        "n",
        "y"
      ],
      [
        "u",
        "ck"
      ],
      [
        "Ġc",
        "ame"
      ],
      [
        "Ġdec",
        "id"
      ],
      [
        "Ġdo",
        "g"
      ],
      [
        "Ġdecid",
        "ed"
      ],
      [
        "Ġe",
        "very"
      ],
      [
        "Ġb",
        "l"
      ],
      [
        "u",
        "st"
      ],
      [
        "Ġli",
        "ked"
      ],
      [
        "Ġbe",
        "c"
      ],
      [
        "Ġd",
        "own"
      ],
      [
        "Ġon",
        "e"
      ],
      [
        "Ġsc",
        "ared"
      ],
      [
        "Ġca",
        "re"
      ],
      [
        "ou",
        "se"
      ],
      [
        "Ġth",
        "an"
      ],
      [
        "Ġf",
        "ind"
      ],
      [
        "Ġfe",
        "el"
      ],
      [
        "ar",
        "a"
      ],
      [
        "Ġt",
        "ree"
      ],
      [
        "Ġa",
        "b"
      ],
      [
        "Ġd",
        "ad"
      ],
      [
        "Ġyou",
        "r"
      ],
      [
        "Ġp",
        "o"
      ],
      [
        "way",
        "s"
      ],
      [
        "ĠS",
        "o"
      ],
      [
        "Ġt",
        "a"
      ],
      [
        "ĠS",
        "am"
      ],
      [
        "ĠJ",
        "o"
      ],
      [
        "a",
        "ve"
      ],
      [
        "Ġb",
        "u"
      ],
      [
        "ĠM",
        "a"
      ],
      [
        "is",
        "t"
      ],
      [
        "Ġal",
        "ways"
      ],
      [
        "b",
        "b"
      ],
      [
        "an",
        "t"
      ],
      [
        "Ġdid",
        "n"
      ],
      [
        "Ġab",
        "out"
      ],
      [
        "nd",
        "er"
      ],
      [
        "ou",
        "r"
      ],
      [
        "it",
        "e"
      ],
      [
        "Ġ",
        "ke"
      ],
      [
        "Ġl",
        "ot"
      ],
      [
        "Ġth",
        "ought"
      ],
      [
        "Ġtoo",
        "k"
      ],
      [
        "Ġkn",
        "e"
      ],
      [
        "ĠS",
        "ara"
      ],
      [
        "Ġg",
        "ra"
      ],
      [
        "Ġm",
        "y"
      ],
      [
        "ĠW",
        "hen"
      ],
      [
        "Ġloo",
        "k"
      ],
      [
        "Ġo",
        "ld"
      ],
      [
        "Ġin",
        "t"
      ],
      [
        "n",
        "ed"
      ],
      [
        "er",
        "s"
      ],
      [
        "f",
        "e"
      ],
      [
        "a",
        "re"
      ],
      [
        "n",
        "a"
      ],
      [
        "ĠMa",
        "x"
      ],
      [
        "c",
        "hed"
      ],
      [
        "is",
        "e"
      ],
      [
        "Ġout",
        "side"
      ],
      [
        "es",
        "s"
      ],
      [
        "dd",
        "en"
      ],
      [
        "Ġla",
        "ug"
      ],
      [
        "ec",
        "i"
      ],
      [
        "Ġh",
        "o"
      ],
      [
        "Ġmom",
        "my"
      ],
      [
        "en",
        "ed"
      ],
      [
        "g",
        "ed"
      ],
      [
        "ĠA",
        "n"
      ],
      [
        "Ġb",
        "all"
      ],
      [
        "Ġtoy",
        "s"
      ],
      [
        "Ġt",
        "ake"
      ],
      [
        "ĠH",
        "er"
      ],
      [
        "Ġkn",
        "ow"
      ],
      [
        "dden",
        "ly"
      ],
      [
        "Ġw",
        "ill"
      ],
      [
        "Ġle",
        "ar"
      ],
      [
        "Ġm",
        "ore"
      ],
      [
        "Ġp",
        "u"
      ],
      [
        "eci",
        "al"
      ],
      [
        "Ġsp",
        "ecial"
      ],
      [
        "Ġkne",
        "w"
      ],
      [
        "Ġp",
        "e"
      ],
      [
        "re",
        "t"
      ],
      [
        "ĠJ",
        "ack"
      ],
      [
        "re",
        "at"
      ],
      [
        "Ġan",
        "y"
      ],
      [
        "ft",
        "er"
      ],
      [
        "Ġs",
        "un"
      ],
      [
        "m",
        "a"
      ],
      [
        "Ġt",
        "r"
      ],
      [
        "Ġc",
        "at"
      ],
      [
        "i",
        "ve"
      ],
      [
        "a",
        "p"
      ],
      [
        "Ġh",
        "ow"
      ],
      [
        "i",
        "a"
      ],
      [
        "Ġt",
        "w"
      ],
      [
        "g",
        "e"
      ],
      [
        "ĠAn",
        "na"
      ],
      [
        "v",
        "en"
      ],
      [
        "Ġsh",
        "ow"
      ],
      [
        "o",
        "b"
      ],
      [
        "Ġm",
        "o"
      ],
      [
        "Ġs",
        "k"
      ],
      [
        "Ġmu",
        "ch"
      ],
      [
        "is",
        "h"
      ],
      [
        "Ġint",
        "o"
      ],
      [
        "Ġ",
        "en"
      ],
      [
        "a",
        "u"
      ],
      [
        "ĠE",
        "very"
      ],
      [
        "Ġcould",
        "n"
      ],
      [
        "ĠSu",
        "ddenly"
      ],
      [
        "Ġto",
        "ld"
      ],
      [
        "Ġ",
        "qu"
      ],
      [
        "Ġex",
        "pl"
      ],
      [
        "Ġcl",
        "o"
      ],
      [
        "Ġ",
        "if"
      ],
      [
        "Ġha",
        "nd"
      ],
      [
        "Ġs",
        "l"
      ],
      [
        "Ġs",
        "or"
      ],
      [
        "Ġo",
        "p"
      ],
      [
        "an",
        "k"
      ],
      [
        "Ġh",
        "ouse"
      ],
      [
        "Ġne",
        "ver"
      ],
      [
        "Ġpr",
        "oud"
      ],
      [
        "Ġin",
        "side"
      ],
      [
        "ot",
        "her"
      ],
      [
        "Ġhe",
        "ard"
      ],
      [
        "Ġg",
        "ave"
      ],
      [
        "Ġo",
        "ver"
      ],
      [
        "Ġ",
        "âĢ"
      ],
      [
        "Ġth",
        "is"
      ],
      [
        "Ġo",
        "r"
      ],
      [
        "Ġr",
        "un"
      ],
      [
        "Ġst",
        "r"
      ],
      [
        "t",
        "y"
      ],
      [
        "Ġp",
        "ick"
      ],
      [
        "Ġro",
        "om"
      ],
      [
        "Ġt",
        "ried"
      ],
      [
        "ĠF",
        "rom"
      ],
      [
        "d",
        "y"
      ],
      [
        "ĠH",
        "is"
      ],
      [
        "in",
        "k"
      ],
      [
        "Ġwa",
        "ter"
      ],
      [
        "u",
        "c"
      ],
      [
        "he",
        "re"
      ],
      [
        "Ġplay",
        "ed"
      ],
      [
        "i",
        "on"
      ],
      [
        "Ġf",
        "o"
      ],
      [
        "au",
        "se"
      ],
      [
        "Ġsm",
        "all"
      ],
      [
        "ĠâĢ",
        "ľ"
      ],
      [
        "at",
        "e"
      ],
      [
        "âĢ",
        "Ŀ"
      ],
      [
        "Ġsor",
        "ry"
      ],
      [
        "a",
        "ce"
      ],
      [
        "Ġj",
        "ust"
      ],
      [
        "et",
        "ter"
      ],
      [
        "Ġwa",
        "t"
      ],
      [
        "um",
        "p"
      ],
      [
        "Ġe",
        "at"
      ],
      [
        "s",
        "ed"
      ],
      [
        "oug",
        "h"
      ],
      [
        "Ġhug",
        "ged"
      ],
      [
        "ot",
        "h"
      ],
      [
        "Ġne",
        "ed"
      ],
      [
        "il",
        "e"
      ],
      [
        "Ġc",
        "om"
      ],
      [
        "Ġbec",
        "ause"
      ],
      [
        "'",
        "m"
      ],
      [
        "ĠThe",
        "n"
      ],
      [
        "i",
        "z"
      ],
      [
        "Ġc",
        "all"
      ],
      [
        "Ġl",
        "ong"
      ],
      [
        "v",
        "ing"
      ],
      [
        "b",
        "y"
      ],
      [
[...]
